{
  "version": "1.0",
  "truncation": null,
  "padding": null,
  "added_tokens": [
    {
      "id": 0,
      "content": "[UNK]",
      "single_word": false,
      "lstrip": false,
      "rstrip": false,
      "normalized": false,
      "special": true
    },
    {
      "id": 1,
      "content": "[PAD]",
      "single_word": false,
      "lstrip": false,
      "rstrip": false,
      "normalized": false,
      "special": true
    },
    {
      "id": 2,
      "content": "[BOS]",
      "single_word": false,
      "lstrip": false,
      "rstrip": false,
      "normalized": false,
      "special": true
    },
    {
      "id": 3,
      "content": "[EOS]",
      "single_word": false,
      "lstrip": false,
      "rstrip": false,
      "normalized": false,
      "special": true
    },
    {
      "id": 4,
      "content": "[SEP]",
      "single_word": false,
      "lstrip": false,
      "rstrip": false,
      "normalized": false,
      "special": true
    }
  ],
  "normalizer": null,
  "pre_tokenizer": {
    "type": "Whitespace"
  },
  "post_processor": {
    "type": "TemplateProcessing",
    "single": [
      {
        "SpecialToken": {
          "id": "[BOS]",
          "type_id": 0
        }
      },
      {
        "Sequence": {
          "id": "A",
          "type_id": 0
        }
      },
      {
        "SpecialToken": {
          "id": "[EOS]",
          "type_id": 0
        }
      }
    ],
    "pair": [
      {
        "Sequence": {
          "id": "A",
          "type_id": 0
        }
      },
      {
        "Sequence": {
          "id": "B",
          "type_id": 1
        }
      }
    ],
    "special_tokens": {
      "[BOS]": {
        "id": "[BOS]",
        "ids": [
          2
        ],
        "tokens": [
          "[BOS]"
        ]
      },
      "[EOS]": {
        "id": "[EOS]",
        "ids": [
          3
        ],
        "tokens": [
          "[EOS]"
        ]
      }
    }
  },
  "decoder": null,
  "model": {
    "type": "BPE",
    "dropout": null,
    "unk_token": "[UNK]",
    "continuing_subword_prefix": null,
    "end_of_word_suffix": null,
    "fuse_unk": false,
    "byte_fallback": false,
    "ignore_merges": false,
    "vocab": {
      "[UNK]": 0,
      "[PAD]": 1,
      "[BOS]": 2,
      "[EOS]": 3,
      "[SEP]": 4,
      "!": 5,
      "%": 6,
      "'": 7,
      "(": 8,
      ")": 9,
      "*": 10,
      ",": 11,
      "-": 12,
      ".": 13,
      "/": 14,
      "0": 15,
      "1": 16,
      "2": 17,
      "3": 18,
      "4": 19,
      "5": 20,
      "6": 21,
      "7": 22,
      "8": 23,
      "9": 24,
      ":": 25,
      ";": 26,
      "?": 27,
      "E": 28,
      "P": 29,
      "S": 30,
      "[": 31,
      "]": 32,
      "a": 33,
      "b": 34,
      "c": 35,
      "d": 36,
      "e": 37,
      "f": 38,
      "g": 39,
      "h": 40,
      "i": 41,
      "j": 42,
      "k": 43,
      "l": 44,
      "m": 45,
      "n": 46,
      "o": 47,
      "p": 48,
      "q": 49,
      "r": 50,
      "s": 51,
      "t": 52,
      "u": 53,
      "v": 54,
      "w": 55,
      "x": 56,
      "y": 57,
      "z": 58,
      "th": 59,
      "in": 60,
      "an": 61,
      "er": 62,
      "EP": 63,
      "SEP": 64,
      "on": 65,
      "or": 66,
      "the": 67,
      "at": 68,
      "al": 69,
      "en": 70,
      "es": 71,
      "ing": 72,
      "ou": 73,
      "to": 74,
      "ar": 75,
      "is": 76,
      "of": 77,
      "ed": 78,
      "it": 79,
      "as": 80,
      "om": 81,
      "wh": 82,
      "re": 83,
      "and": 84,
      "ic": 85,
      "le": 86,
      "us": 87,
      "ly": 88,
      "ac": 89,
      "se": 90,
      "st": 91,
      "ch": 92,
      "be": 93,
      "oo": 94,
      "for": 95,
      "you": 96,
      "am": 97,
      "ion": 98,
      ";;": 99,
      "sh": 100,
      "one": 101,
      "ow": 102,
      "un": 103,
      "ad": 104,
      "wi": 105,
      "li": 106,
      "et": 107,
      "ot": 108,
      "ter": 109,
      "ir": 110,
      "ll": 111,
      "that": 112,
      "ay": 113,
      "ome": 114,
      "ck": 115,
      "who": 116,
      "ve": 117,
      "ver": 118,
      "id": 119,
      "ke": 120,
      "per": 121,
      "im": 122,
      "ut": 123,
      "ro": 124,
      "ig": 125,
      "with": 126,
      "some": 127,
      "ent": 128,
      "ag": 129,
      "pe": 130,
      "ur": 131,
      "fr": 132,
      "all": 133,
      "wor": 134,
      "ally": 135,
      "ther": 136,
      "so": 137,
      "he": 138,
      "ab": 139,
      "de": 140,
      "me": 141,
      "ap": 142,
      "um": 143,
      "ul": 144,
      "up": 145,
      "..": 146,
      "tr": 147,
      "lo": 148,
      "ex": 149,
      "ass": 150,
      "po": 151,
      "uck": 152,
      "ce": 153,
      "mo": 154,
      "by": 155,
      "il": 156,
      "fe": 157,
      "cr": 158,
      "com": 159,
      "ess": 160,
      "oun": 161,
      "son": 162,
      "ack": 163,
      "out": 164,
      "when": 165,
      "ick": 166,
      "thing": 167,
      "used": 168,
      "ha": 169,
      "co": 170,
      "pl": 171,
      "we": 172,
      "est": 173,
      "man": 174,
      "ation": 175,
      "do": 176,
      "bo": 177,
      "are": 178,
      "ct": 179,
      "word": 180,
      "ang": 181,
      "act": 182,
      "your": 183,
      "person": 184,
      "sex": 185,
      "ld": 186,
      "con": 187,
      "no": 188,
      "pr": 189,
      "ak": 190,
      "ate": 191,
      "ant": 192,
      "from": 193,
      "te": 194,
      "qu": 195,
      "ple": 196,
      "ne": 197,
      "own": 198,
      "but": 199,
      "ard": 200,
      "ty": 201,
      "bl": 202,
      "dr": 203,
      "someone": 204,
      "igh": 205,
      "fuck": 206,
      "ie": 207,
      "not": 208,
      "ame": 209,
      "ain": 210,
      "ive": 211,
      "can": 212,
      "su": 213,
      "end": 214,
      "mal": 215,
      "art": 216,
      "like": 217,
      "other": 218,
      "go": 219,
      "ast": 220,
      "if": 221,
      "gr": 222,
      "sl": 223,
      "gh": 224,
      "ge": 225,
      "see": 226,
      "ous": 227,
      "ho": 228,
      "ers": 229,
      "iz": 230,
      "sp": 231,
      "get": 232,
      "also": 233,
      "pen": 234,
      "her": 235,
      "ound": 236,
      "iv": 237,
      "very": 238,
      "any": 239,
      "ood": 240,
      "pro": 241,
      "ip": 242,
      "has": 243,
      "ace": 244,
      "ist": 245,
      "ies": 246,
      "they": 247,
      "der": 248,
      "ually": 249,
      "male": 250,
      "ual": 251,
      "kn": 252,
      "ite": 253,
      "ill": 254,
      "ity": 255,
      "ind": 256,
      "cl": 257,
      "af": 258,
      "ish": 259,
      "el": 260,
      "ink": 261,
      "br": 262,
      "ust": 263,
      "his": 264,
      "something": 265,
      "shit": 266,
      "ore": 267,
      "ong": 268,
      "ool": 269,
      "gir": 270,
      "ake": 271,
      "have": 272,
      "ort": 273,
      "ich": 274,
      "girl": 275,
      "use": 276,
      "sy": 277,
      "des": 278,
      "ight": 279,
      "term": 280,
      "way": 281,
      "ph": 282,
      "em": 283,
      "ten": 284,
      "ook": 285,
      "mon": 286,
      "peo": 287,
      "usually": 288,
      "age": 289,
      "ug": 290,
      "jo": 291,
      "ans": 292,
      "gu": 293,
      "people": 294,
      "ile": 295,
      "fl": 296,
      "this": 297,
      "ere": 298,
      "wom": 299,
      "ice": 300,
      "tim": 301,
      "cre": 302,
      "which": 303,
      "ca": 304,
      "off": 305,
      "penis": 306,
      "sm": 307,
      "ib": 308,
      "...": 309,
      "ine": 310,
      "ated": 311,
      "sk": 312,
      "ub": 313,
      "av": 314,
      "str": 315,
      "ci": 316,
      "ment": 317,
      "spe": 318,
      "their": 319,
      "what": 320,
      "gre": 321,
      "sexual": 322,
      "ure": 323,
      "its": 324,
      "fer": 325,
      "ian": 326,
      "ol": 327,
      "az": 328,
      "car": 329,
      "!!": 330,
      "say": 331,
      "form": 332,
      "ide": 333,
      "ough": 334,
      "ank": 335,
      "itch": 336,
      "pos": 337,
      "able": 338,
      "aw": 339,
      "gen": 340,
      "ting": 341,
      "my": 342,
      "our": 343,
      "je": 344,
      "most": 345,
      "head": 346,
      "dis": 347,
      "play": 348,
      "ev": 349,
      "ud": 350,
      "good": 351,
      "being": 352,
      "che": 353,
      "ins": 354,
      "].": 355,
      "over": 356,
      "dy": 357,
      "unk": 358,
      "ould": 359,
      "ber": 360,
      "cool": 361,
      "just": 362,
      "often": 363,
      "guy": 364,
      "res": 365,
      "ving": 366,
      "another": 367,
      "cock": 368,
      "into": 369,
      "she": 370,
      "part": 371,
      "ach": 372,
      "them": 373,
      "ext": 374,
      "du": 375,
      "ball": 376,
      "ating": 377,
      "pu": 378,
      "'.": 379,
      "hom": 380,
      "name": 381,
      "tw": 382,
      "look": 383,
      "more": 384,
      "ye": 385,
      "ff": 386,
      "fri": 387,
      "mar": 388,
      "ts": 389,
      "female": 390,
      "really": 391,
      "pre": 392,
      "inter": 393,
      "ep": 394,
      "ia": 395,
      "slang": 396,
      "bre": 397,
      "descr": 398,
      "time": 399,
      "was": 400,
      "ade": 401,
      "woman": 402,
      "friend": 403,
      "bet": 404,
      "bitch": 405,
      "ious": 406,
      "gay": 407,
      "ner": 408,
      "imp": 409,
      "where": 410,
      "big": 411,
      "than": 412,
      "don": 413,
      "mu": 414,
      "ence": 415,
      "mean": 416,
      "back": 417,
      "after": 418,
      "ase": 419,
      "every": 420,
      "lar": 421,
      "know": 422,
      "ob": 423,
      "ular": 424,
      "king": 425,
      "lit": 426,
      "dick": 427,
      "ult": 428,
      "sel": 429,
      "known": 430,
      "izz": 431,
      "ance": 432,
      "then": 433,
      "gl": 434,
      "ser": 435,
      "ever": 436,
      "sa": 437,
      "tle": 438,
      "face": 439,
      "will": 440,
      "agin": 441,
      "men": 442,
      "ject": 443,
      "stup": 444,
      "ger": 445,
      "ves": 446,
      "high": 447,
      "hair": 448,
      "par": 449,
      "stupid": 450,
      "down": 451,
      "only": 452,
      "int": 453,
      "bad": 454,
      "ash": 455,
      "ical": 456,
      "short": 457,
      "les": 458,
      "ys": 459,
      "about": 460,
      "ition": 461,
      "fat": 462,
      "sc": 463,
      "pus": 464,
      "ese": 465,
      "vagin": 466,
      "pt": 467,
      "hot": 468,
      "great": 469,
      "tal": 470,
      "too": 471,
      "00": 472,
      "fo": 473,
      "reme": 474,
      "while": 475,
      "cause": 476,
      "ma": 477,
      "app": 478,
      "call": 479,
      "press": 480,
      "fun": 481,
      "under": 482,
      "around": 483,
      "unt": 484,
      "ire": 485,
      "suck": 486,
      "does": 487,
      "ibe": 488,
      "sho": 489,
      "day": 490,
      "sn": 491,
      "thr": 492,
      "tur": 493,
      "cor": 494,
      "place": 495,
      "ump": 496,
      "fin": 497,
      "small": 498,
      "make": 499,
      "long": 500,
      "there": 501,
      "tain": 502,
      "homo": 503,
      "common": 504,
      "hand": 505,
      "ue": 506,
      "think": 507,
      "pop": 508,
      "iss": 509,
      "ny": 510,
      "mak": 511,
      "ater": 512,
      "large": 513,
      "mus": 514,
      "bu": 515,
      "self": 516,
      "key": 517,
      "let": 518,
      "kes": 519,
      "describe": 520,
      "nor": 521,
      "ry": 522,
      "made": 523,
      "boo": 524,
      "vers": 525,
      "ction": 526,
      "vi": 527,
      "ble": 528,
      "game": 529,
      ".)": 530,
      "ss": 531,
      "best": 532,
      "world": 533,
      "ful": 534,
      "atch": 535,
      "ah": 536,
      "refer": 537,
      "body": 538,
      "bur": 539,
      "new": 540,
      "ones": 541,
      "ars": 542,
      "extreme": 543,
      "],": 544,
      "red": 545,
      "col": 546,
      "ower": 547,
      "fre": 548,
      "sch": 549,
      "ican": 550,
      "noun": 551,
      "ates": 552,
      "amer": 553,
      "ory": 554,
      "less": 555,
      "poo": 556,
      "ary": 557,
      "au": 558,
      "having": 559,
      "want": 560,
      "white": 561,
      "vagina": 562,
      "gg": 563,
      "hum": 564,
      "ju": 565,
      "means": 566,
      "cho": 567,
      "net": 568,
      "much": 569,
      "outh": 570,
      "try": 571,
      "ps": 572,
      "meaning": 573,
      "cur": 574,
      "him": 575,
      "real": 576,
      "fucking": 577,
      "ks": 578,
      "tard": 579,
      "wr": 580,
      "ony": 581,
      "butt": 582,
      "fu": 583,
      "ically": 584,
      "ste": 585,
      "ween": 586,
      "little": 587,
      "hard": 588,
      "life": 589,
      "pussy": 590,
      "black": 591,
      "boy": 592,
      "io": 593,
      "ial": 594,
      "cess": 595,
      "clo": 596,
      "ise": 597,
      "ef": 598,
      "cle": 599,
      "sub": 600,
      "got": 601,
      "sim": 602,
      "because": 603,
      "two": 604,
      "same": 605,
      "tak": 606,
      "smo": 607,
      "--": 608,
      "cum": 609,
      "band": 610,
      "old": 611,
      "que": 612,
      "pa": 613,
      "',": 614,
      "ra": 615,
      "rel": 616,
      "giv": 617,
      "god": 618,
      "such": 619,
      "how": 620,
      "between": 621,
      ".'": 622,
      "cont": 623,
      "char": 624,
      "put": 625,
      "gener": 626,
      "many": 627,
      ").": 628,
      "tho": 629,
      "ict": 630,
      "oot": 631,
      "swe": 632,
      "express": 633,
      "homosexual": 634,
      "att": 635,
      "pie": 636,
      "top": 637,
      "min": 638,
      "op": 639,
      "urb": 640,
      "coun": 641,
      "org": 642,
      "orig": 643,
      "nut": 644,
      "eat": 645,
      "would": 646,
      "orn": 647,
      "chick": 648,
      "likes": 649,
      "umb": 650,
      "anything": 651,
      "ces": 652,
      "cons": 653,
      "comp": 654,
      "leg": 655,
      "may": 656,
      "ily": 657,
      "ix": 658,
      "ital": 659,
      "ail": 660,
      "stick": 661,
      "ied": 662,
      "kid": 663,
      "state": 664,
      "lling": 665,
      "found": 666,
      "love": 667,
      "bag": 668,
      "ga": 669,
      "sound": 670,
      "ath": 671,
      "come": 672,
      "unch": 673,
      "bas": 674,
      "fir": 675,
      "origin": 676,
      "cent": 677,
      "ible": 678,
      "take": 679,
      "dir": 680,
      "ness": 681,
      "sit": 682,
      "sme": 683,
      "action": 684,
      "etc": 685,
      "onym": 686,
      "cal": 687,
      "show": 688,
      "da": 689,
      "sw": 690,
      "stand": 691,
      "anus": 692,
      "fore": 693,
      "fag": 694,
      "ign": 695,
      "anal": 696,
      "oup": 697,
      "ster": 698,
      "rock": 699,
      "ants": 700,
      "super": 701,
      "ative": 702,
      "ute": 703,
      "aster": 704,
      "arm": 705,
      "na": 706,
      "ana": 707,
      "bs": 708,
      "mouth": 709,
      "crack": 710,
      "air": 711,
      "tom": 712,
      "well": 713,
      "girls": 714,
      "ens": 715,
      "som": 716,
      "inv": 717,
      "uff": 718,
      "add": 719,
      "ligh": 720,
      "[/": 721,
      "drink": 722,
      "even": 723,
      "music": 724,
      "verb": 725,
      "gam": 726,
      "using": 727,
      "azy": 728,
      "line": 729,
      "fart": 730,
      "anim": 731,
      "sty": 732,
      "dog": 733,
      "been": 734,
      "ped": 735,
      "gang": 736,
      "zz": 737,
      "wn": 738,
      "cour": 739,
      "work": 740,
      "said": 741,
      "bab": 742,
      "right": 743,
      "nam": 744,
      "words": 745,
      "gy": 746,
      "ping": 747,
      "ced": 748,
      "defin": 749,
      "bus": 750,
      "things": 751,
      "cond": 752,
      "syn": 753,
      "extremely": 754,
      "hy": 755,
      "soci": 756,
      "ugly": 757,
      "sur": 758,
      "pimp": 759,
      "cy": 760,
      "lot": 761,
      "run": 762,
      "gets": 763,
      "eng": 764,
      "comple": 765,
      "women": 766,
      "ave": 767,
      "oney": 768,
      "retard": 769,
      "hor": 770,
      "slut": 771,
      "room": 772,
      "comm": 773,
      "iot": 774,
      "yo": 775,
      "ature": 776,
      "ism": 777,
      "poss": 778,
      "bot": 779,
      "dam": 780,
      "scr": 781,
      "saying": 782,
      "llow": 783,
      "feel": 784,
      "without": 785,
      "hell": 786,
      "power": 787,
      "mother": 788,
      "33": 789,
      "cer": 790,
      "area": 791,
      "comes": 792,
      "phr": 793,
      "commonly": 794,
      "group": 795,
      "rap": 796,
      "though": 797,
      "compu": 798,
      "hole": 799,
      "computer": 800,
      "....": 801,
      "ning": 802,
      "adj": 803,
      "oc": 804,
      "met": 805,
      "bro": 806,
      "wal": 807,
      "ey": 808,
      "uring": 809,
      "ions": 810,
      "ted": 811,
      "var": 812,
      "balls": 813,
      "bin": 814,
      "sup": 815,
      "war": 816,
      "ling": 817,
      "ents": 818,
      "makes": 819,
      "ez": 820,
      "ways": 821,
      "popular": 822,
      "ek": 823,
      "ics": 824,
      "mem": 825,
      "side": 826,
      "wear": 827,
      "job": 828,
      "py": 829,
      "need": 830,
      "mer": 831,
      "ilar": 832,
      "produ": 833,
      "ouse": 834,
      "ree": 835,
      "ards": 836,
      "blow": 837,
      "dirty": 838,
      "fing": 839,
      "money": 840,
      "whore": 841,
      "chil": 842,
      "ear": 843,
      "ont": 844,
      "read": 845,
      "first": 846,
      "ying": 847,
      "lly": 848,
      "through": 849,
      "mari": 850,
      "ange": 851,
      "cap": 852,
      "pur": 853,
      "human": 854,
      "test": 855,
      "fect": 856,
      "type": 857,
      "dif": 858,
      "course": 859,
      "bar": 860,
      "acter": 861,
      "izzle": 862,
      "ring": 863,
      "ons": 864,
      "mast": 865,
      "now": 866,
      "phrase": 867,
      "low": 868,
      "stre": 869,
      "juana": 870,
      "those": 871,
      "ations": 872,
      "kill": 873,
      "mid": 874,
      "never": 875,
      "drug": 876,
      "school": 877,
      "tem": 878,
      "ized": 879,
      "pot": 880,
      "ved": 881,
      "engl": 882,
      "idiot": 883,
      "getting": 884,
      "object": 885,
      "night": 886,
      "cept": 887,
      "character": 888,
      "similar": 889,
      "dumb": 890,
      "reg": 891,
      "pleas": 892,
      "home": 893,
      "jack": 894,
      "ming": 895,
      "enjo": 896,
      "rect": 897,
      "attr": 898,
      "uses": 899,
      "kick": 900,
      "land": 901,
      "roll": 902,
      "crap": 903,
      "better": 904,
      "hal": 905,
      "style": 906,
      "marijuana": 907,
      "sing": 908,
      "complete": 909,
      "ta": 910,
      "la": 911,
      "ik": 912,
      "ike": 913,
      "mor": 914,
      "drunk": 915,
      "bon": 916,
      "youn": 917,
      "fam": 918,
      "ude": 919,
      "light": 920,
      "food": 921,
      "hit": 922,
      "ator": 923,
      "sta": 924,
      "masturb": 925,
      "ww": 926,
      "pres": 927,
      "por": 928,
      "should": 929,
      "imes": 930,
      "during": 931,
      "monkey": 932,
      "led": 933,
      "wank": 934,
      "tit": 935,
      "star": 936,
      "beli": 937,
      "qual": 938,
      "astic": 939,
      "dev": 940,
      "called": 941,
      "den": 942,
      "gin": 943,
      "somet": 944,
      "hu": 945,
      "beat": 946,
      "!!!!": 947,
      "jap": 948,
      "mil": 949,
      "nice": 950,
      "pect": 951,
      "ither": 952,
      "ivid": 953,
      "lls": 954,
      "males": 955,
      "piece": 956,
      "sen": 957,
      "partic": 958,
      "augh": 959,
      "cut": 960,
      "ft": 961,
      "rid": 962,
      "ize": 963,
      "doesn": 964,
      "turn": 965,
      "scre": 966,
      "internet": 967,
      "mom": 968,
      "pants": 969,
      "ently": 970,
      "med": 971,
      "master": 972,
      "hol": 973,
      "shole": 974,
      "sexy": 975,
      "nothing": 976,
      "cas": 977,
      "kind": 978,
      "individ": 979,
      "skin": 980,
      "bow": 981,
      "ding": 982,
      "ms": 983,
      "anno": 984,
      "asshole": 985,
      "ird": 986,
      "weed": 987,
      "ived": 988,
      "player": 989,
      "american": 990,
      "di": 991,
      "lick": 992,
      "nin": 993,
      "squ": 994,
      "dar": 995,
      "piss": 996,
      "ref": 997,
      "cu": 998,
      "ee": 999,
      "sometimes": 1000,
      "individual": 1001,
      "19": 1002,
      "dou": 1003,
      "lip": 1004,
      "bit": 1005,
      "fucker": 1006,
      "looks": 1007,
      "ler": 1008,
      "mis": 1009,
      "main": 1010,
      "genital": 1011,
      "expression": 1012,
      "espe": 1013,
      "acul": 1014,
      "point": 1015,
      "als": 1016,
      "always": 1017,
      "amp": 1018,
      "again": 1019,
      "going": 1020,
      "bum": 1021,
      "dle": 1022,
      "ej": 1023,
      "box": 1024,
      "friends": 1025,
      "hap": 1026,
      "ior": 1027,
      "sle": 1028,
      "ific": 1029,
      "ities": 1030,
      "crazy": 1031,
      "doing": 1032,
      "version": 1033,
      "atter": 1034,
      "combin": 1035,
      "guys": 1036,
      "young": 1037,
      "could": 1038,
      "vie": 1039,
      "etto": 1040,
      "making": 1041,
      "bast": 1042,
      "water": 1043,
      "thinks": 1044,
      "spec": 1045,
      "either": 1046,
      "flo": 1047,
      "pet": 1048,
      "dor": 1049,
      "lli": 1050,
      "inte": 1051,
      "beer": 1052,
      "cially": 1053,
      "gar": 1054,
      "tend": 1055,
      "vis": 1056,
      "amoun": 1057,
      "ghetto": 1058,
      "mess": 1059,
      "class": 1060,
      "generally": 1061,
      "damn": 1062,
      "ds": 1063,
      "fact": 1064,
      "set": 1065,
      "perform": 1066,
      "conf": 1067,
      "brown": 1068,
      "insult": 1069,
      "definition": 1070,
      "ier": 1071,
      "port": 1072,
      "board": 1073,
      "lad": 1074,
      "os": 1075,
      "awes": 1076,
      "ba": 1077,
      "were": 1078,
      "stem": 1079,
      "before": 1080,
      "games": 1081,
      "num": 1082,
      "og": 1083,
      "sal": 1084,
      "ross": 1085,
      "ejacul": 1086,
      "0r": 1087,
      "intercourse": 1088,
      "ls": 1089,
      "ane": 1090,
      "appe": 1091,
      "anger": 1092,
      "ustr": 1093,
      "aka": 1094,
      "dro": 1095,
      "atur": 1096,
      "cheese": 1097,
      "oh": 1098,
      "chin": 1099,
      "fan": 1100,
      "give": 1101,
      "pain": 1102,
      "ited": 1103,
      "acr": 1104,
      "dead": 1105,
      "full": 1106,
      "english": 1107,
      "both": 1108,
      "especially": 1109,
      "named": 1110,
      "attract": 1111,
      "japan": 1112,
      "mag": 1113,
      "still": 1114,
      "chr": 1115,
      "ows": 1116,
      "gun": 1117,
      "fucked": 1118,
      "sweet": 1119,
      "invol": 1120,
      "pol": 1121,
      "appy": 1122,
      "mass": 1123,
      "else": 1124,
      "everything": 1125,
      "ili": 1126,
      "quest": 1127,
      "others": 1128,
      "breast": 1129,
      "hang": 1130,
      "excl": 1131,
      "move": 1132,
      "done": 1133,
      "bor": 1134,
      "looking": 1135,
      "eye": 1136,
      "incl": 1137,
      "awesome": 1138,
      "did": 1139,
      "far": 1140,
      "ibly": 1141,
      "dom": 1142,
      "jer": 1143,
      "must": 1144,
      "pass": 1145,
      "punk": 1146,
      "lack": 1147,
      "ats": 1148,
      "asty": 1149,
      "wa": 1150,
      "oral": 1151,
      "atory": 1152,
      "asy": 1153,
      "ung": 1154,
      "bed": 1155,
      "ings": 1156,
      "vari": 1157,
      "had": 1158,
      "ker": 1159,
      "lin": 1160,
      "uni": 1161,
      "funny": 1162,
      "ken": 1163,
      "mot": 1164,
      "lim": 1165,
      "load": 1166,
      "skill": 1167,
      "oppos": 1168,
      "situ": 1169,
      "street": 1170,
      "strong": 1171,
      "cunt": 1172,
      "stuff": 1173,
      "ider": 1174,
      "neck": 1175,
      "hip": 1176,
      "house": 1177,
      "tern": 1178,
      "half": 1179,
      "find": 1180,
      "mm": 1181,
      "seen": 1182,
      "ident": 1183,
      "lock": 1184,
      "actually": 1185,
      "taking": 1186,
      "these": 1187,
      "toile": 1188,
      "town": 1189,
      "front": 1190,
      "tight": 1191,
      "shot": 1192,
      "ship": 1193,
      "system": 1194,
      "poop": 1195,
      "bastard": 1196,
      "wan": 1197,
      "ors": 1198,
      "keep": 1199,
      "meat": 1200,
      "ja": 1201,
      "val": 1202,
      "del": 1203,
      "tech": 1204,
      "due": 1205,
      "kno": 1206,
      "tha": 1207,
      "esh": 1208,
      "anyone": 1209,
      "talk": 1210,
      "non": 1211,
      "exc": 1212,
      "cial": 1213,
      "subst": 1214,
      "plo": 1215,
      "vo": 1216,
      "def": 1217,
      "plac": 1218,
      "acts": 1219,
      "aim": 1220,
      "bud": 1221,
      "fish": 1222,
      "nick": 1223,
      "adject": 1224,
      "happen": 1225,
      "fire": 1226,
      "hind": 1227,
      "yet": 1228,
      "ench": 1229,
      "member": 1230,
      "bat": 1231,
      "fast": 1232,
      "sport": 1233,
      "mark": 1234,
      "break": 1235,
      "everyone": 1236,
      "toilet": 1237,
      "derived": 1238,
      "song": 1239,
      "counter": 1240,
      "japanese": 1241,
      "!'": 1242,
      "laugh": 1243,
      "ven": 1244,
      "oud": 1245,
      "goes": 1246,
      "speak": 1247,
      "follow": 1248,
      "cir": 1249,
      "log": 1250,
      "bling": 1251,
      "adjective": 1252,
      "mind": 1253,
      "sack": 1254,
      "alco": 1255,
      "live": 1256,
      "acronym": 1257,
      "ii": 1258,
      "pon": 1259,
      "ask": 1260,
      "uss": 1261,
      "hel": 1262,
      "ples": 1263,
      "pron": 1264,
      "aa": 1265,
      "mad": 1266,
      "icle": 1267,
      "hold": 1268,
      "party": 1269,
      "particular": 1270,
      "nip": 1271,
      "watch": 1272,
      "ility": 1273,
      "gram": 1274,
      "baby": 1275,
      "foot": 1276,
      "win": 1277,
      "iness": 1278,
      "ouch": 1279,
      "each": 1280,
      "pub": 1281,
      "sof": 1282,
      "ze": 1283,
      "abo": 1284,
      "iction": 1285,
      "synonym": 1286,
      "ham": 1287,
      "ica": 1288,
      "ush": 1289,
      "post": 1290,
      "arse": 1291,
      "ention": 1292,
      "blood": 1293,
      "alcohol": 1294,
      "sil": 1295,
      "ele": 1296,
      "vide": 1297,
      "order": 1298,
      "oose": 1299,
      "ama": 1300,
      "ters": 1301,
      "annoying": 1302,
      "10": 1303,
      "fool": 1304,
      "ety": 1305,
      "tra": 1306,
      "loves": 1307,
      "typ": 1308,
      "sucks": 1309,
      "left": 1310,
      "ages": 1311,
      "manner": 1312,
      "activ": 1313,
      "differ": 1314,
      "rub": 1315,
      "start": 1316,
      "otch": 1317,
      "ists": 1318,
      "flu": 1319,
      "stud": 1320,
      "lives": 1321,
      "times": 1322,
      "greatest": 1323,
      "smoke": 1324,
      "lang": 1325,
      "drag": 1326,
      "resem": 1327,
      "describ": 1328,
      "lu": 1329,
      "pin": 1330,
      "har": 1331,
      "ban": 1332,
      "open": 1333,
      "enough": 1334,
      "ullet": 1335,
      "nose": 1336,
      "colle": 1337,
      "337": 1338,
      "afr": 1339,
      "cat": 1340,
      "ord": 1341,
      "evil": 1342,
      "finger": 1343,
      "fa": 1344,
      "won": 1345,
      "pleasure": 1346,
      "fil": 1347,
      "stop": 1348,
      "inser": 1349,
      "takes": 1350,
      "given": 1351,
      "giving": 1352,
      "sign": 1353,
      "vir": 1354,
      "metal": 1355,
      "intelli": 1356,
      "fur": 1357,
      "tre": 1358,
      "asian": 1359,
      "retarded": 1360,
      "langu": 1361,
      "fight": 1362,
      "bea": 1363,
      "poor": 1364,
      "proper": 1365,
      "20": 1366,
      "came": 1367,
      "last": 1368,
      "ason": 1369,
      "behind": 1370,
      "commun": 1371,
      "city": 1372,
      "sure": 1373,
      "publ": 1374,
      "enjoys": 1375,
      "kin": 1376,
      "miss": 1377,
      "nig": 1378,
      "ond": 1379,
      "lead": 1380,
      "ends": 1381,
      "dont": 1382,
      "sense": 1383,
      "sleep": 1384,
      "rad": 1385,
      "team": 1386,
      "trying": 1387,
      "refers": 1388,
      "dig": 1389,
      "ya": 1390,
      "once": 1391,
      "icles": 1392,
      "organ": 1393,
      "porn": 1394,
      "wit": 1395,
      "attem": 1396,
      "aff": 1397,
      "bi": 1398,
      "dan": 1399,
      "icious": 1400,
      "ley": 1401,
      "says": 1402,
      "spr": 1403,
      "partner": 1404,
      "huge": 1405,
      "combination": 1406,
      "away": 1407,
      "plan": 1408,
      "situation": 1409,
      "wanna": 1410,
      "bom": 1411,
      "fac": 1412,
      "movie": 1413,
      "playing": 1414,
      "nasty": 1415,
      "wind": 1416,
      "rog": 1417,
      "abbre": 1418,
      "true": 1419,
      "slap": 1420,
      "until": 1421,
      "opposite": 1422,
      "bal": 1423,
      "online": 1424,
      "sever": 1425,
      "cover": 1426,
      "breasts": 1427,
      "language": 1428,
      "tun": 1429,
      "wer": 1430,
      "!!!": 1431,
      "number": 1432,
      "drop": 1433,
      "),": 1434,
      "mix": 1435,
      "rol": 1436,
      "worth": 1437,
      "clean": 1438,
      "above": 1439,
      "ko": 1440,
      "wards": 1441,
      "enter": 1442,
      "ote": 1443,
      "child": 1444,
      "exclam": 1445,
      "second": 1446,
      "somebody": 1447,
      "ax": 1448,
      "hack": 1449,
      "dress": 1450,
      "hairy": 1451,
      "viation": 1452,
      "nuts": 1453,
      "gn": 1454,
      "rand": 1455,
      "whe": 1456,
      "utter": 1457,
      "sol": 1458,
      "heav": 1459,
      "sent": 1460,
      "asm": 1461,
      "stant": 1462,
      "eting": 1463,
      "cing": 1464,
      "tot": 1465,
      "toge": 1466,
      "boys": 1467,
      "consider": 1468,
      "against": 1469,
      "pack": 1470,
      "uce": 1471,
      "blue": 1472,
      "----": 1473,
      "kids": 1474,
      "amount": 1475,
      "dance": 1476,
      "hoo": 1477,
      "lt": 1478,
      "round": 1479,
      "ately": 1480,
      "position": 1481,
      "certain": 1482,
      "attractive": 1483,
      "dire": 1484,
      "tion": 1485,
      "tru": 1486,
      "bles": 1487,
      "process": 1488,
      "selves": 1489,
      "fly": 1490,
      "grap": 1491,
      "ground": 1492,
      "freak": 1493,
      "different": 1494,
      "ging": 1495,
      "mult": 1496,
      "punch": 1497,
      "iting": 1498,
      "vel": 1499,
      "ives": 1500,
      "taining": 1501,
      "together": 1502,
      "dist": 1503,
      "eating": 1504,
      "list": 1505,
      "pink": 1506,
      "rr": 1507,
      "spo": 1508,
      "tin": 1509,
      "prof": 1510,
      "iff": 1511,
      "derog": 1512,
      "inside": 1513,
      "dude": 1514,
      "scrot": 1515,
      "80": 1516,
      "dad": 1517,
      "die": 1518,
      "pig": 1519,
      "rac": 1520,
      "rest": 1521,
      "lled": 1522,
      "upon": 1523,
      "faggot": 1524,
      "sto": 1525,
      "wise": 1526,
      "pret": 1527,
      "free": 1528,
      "animal": 1529,
      "bing": 1530,
      "cig": 1531,
      "mc": 1532,
      "pan": 1533,
      "onic": 1534,
      "force": 1535,
      "fuckin": 1536,
      "special": 1537,
      "viol": 1538,
      "company": 1539,
      "quality": 1540,
      "fall": 1541,
      "ru": 1542,
      "semen": 1543,
      "death": 1544,
      "appro": 1545,
      "prim": 1546,
      "quite": 1547,
      "1337": 1548,
      "bian": 1549,
      "dil": 1550,
      "goo": 1551,
      "vol": 1552,
      "ott": 1553,
      "ability": 1554,
      "ceed": 1555,
      "phys": 1556,
      "creature": 1557,
      "spelling": 1558,
      "general": 1559,
      "bang": 1560,
      "ged": 1561,
      "jizz": 1562,
      "pi": 1563,
      "iously": 1564,
      "exclamation": 1565,
      "ka": 1566,
      "sou": 1567,
      "lies": 1568,
      "except": 1569,
      "mob": 1570,
      "cred": 1571,
      "plain": 1572,
      "brain": 1573,
      "themselves": 1574,
      "eyes": 1575,
      "childr": 1576,
      "random": 1577,
      "south": 1578,
      "tits": 1579,
      "loc": 1580,
      "bull": 1581,
      "reference": 1582,
      "drugs": 1583,
      "hook": 1584,
      "sin": 1585,
      "wang": 1586,
      "wood": 1587,
      "altern": 1588,
      "ired": 1589,
      "loser": 1590,
      "mostly": 1591,
      "bush": 1592,
      "equ": 1593,
      "hood": 1594,
      "rim": 1595,
      "terr": 1596,
      "strike": 1597,
      "lame": 1598,
      "od": 1599,
      "thus": 1600,
      "arch": 1601,
      "quick": 1602,
      "space": 1603,
      "azz": 1604,
      "frequ": 1605,
      "smoking": 1606,
      "legs": 1607,
      "middle": 1608,
      "dark": 1609,
      "simp": 1610,
      "ably": 1611,
      "fant": 1612,
      "matter": 1613,
      "iving": 1614,
      "event": 1615,
      "year": 1616,
      "wants": 1617,
      "wearing": 1618,
      "iest": 1619,
      "ked": 1620,
      "pick": 1621,
      "sand": 1622,
      "become": 1623,
      "cks": 1624,
      "hoe": 1625,
      "children": 1626,
      "core": 1627,
      "cult": 1628,
      "vic": 1629,
      "reason": 1630,
      "burn": 1631,
      "genitalia": 1632,
      "slo": 1633,
      "ulous": 1634,
      "club": 1635,
      "urban": 1636,
      "ape": 1637,
      "total": 1638,
      "ional": 1639,
      "lips": 1640,
      "teen": 1641,
      "ender": 1642,
      "video": 1643,
      "lay": 1644,
      "mic": 1645,
      "associ": 1646,
      "among": 1647,
      "eter": 1648,
      "phone": 1649,
      "avor": 1650,
      "wrong": 1651,
      "gangsta": 1652,
      "feeling": 1653,
      "bird": 1654,
      "gent": 1655,
      "hn": 1656,
      "jam": 1657,
      "mullet": 1658,
      "sar": 1659,
      "iful": 1660,
      "program": 1661,
      "correct": 1662,
      "occur": 1663,
      "public": 1664,
      "totally": 1665,
      "austr": 1666,
      "cow": 1667,
      "cant": 1668,
      "three": 1669,
      "ister": 1670,
      "ented": 1671,
      "trash": 1672,
      "norm": 1673,
      "product": 1674,
      "screw": 1675,
      "care": 1676,
      "fill": 1677,
      "arr": 1678,
      "usage": 1679,
      "neg": 1680,
      "respect": 1681,
      "talking": 1682,
      "social": 1683,
      "happy": 1684,
      "sort": 1685,
      "size": 1686,
      "ets": 1687,
      "pers": 1688,
      "code": 1689,
      "bob": 1690,
      "speed": 1691,
      "knows": 1692,
      "throw": 1693,
      "close": 1694,
      "gas": 1695,
      "ky": 1696,
      "allow": 1697,
      "created": 1698,
      "aves": 1699,
      "green": 1700,
      "steal": 1701,
      "appear": 1702,
      "abbreviation": 1703,
      "eth": 1704,
      "ians": 1705,
      "loud": 1706,
      "reli": 1707,
      "shir": 1708,
      "exper": 1709,
      "web": 1710,
      "canad": 1711,
      "effect": 1712,
      "possible": 1713,
      "austral": 1714,
      "law": 1715,
      "scar": 1716,
      "ino": 1717,
      "tool": 1718,
      "oooo": 1719,
      "fru": 1720,
      "mex": 1721,
      "bie": 1722,
      "book": 1723,
      "gi": 1724,
      "gan": 1725,
      "alot": 1726,
      "whole": 1727,
      "tries": 1728,
      "pose": 1729,
      "aft": 1730,
      "juice": 1731,
      "scrotum": 1732,
      "buck": 1733,
      "cs": 1734,
      "kr": 1735,
      "secre": 1736,
      "beast": 1737,
      "whose": 1738,
      "females": 1739,
      "owned": 1740,
      "color": 1741,
      "rather": 1742,
      "control": 1743,
      "beaut": 1744,
      ",'": 1745,
      "yes": 1746,
      "cop": 1747,
      "cannot": 1748,
      "ending": 1749,
      "here": 1750,
      "brit": 1751,
      "stra": 1752,
      "himself": 1753,
      "gives": 1754,
      "question": 1755,
      "multi": 1756,
      "hat": 1757,
      "ient": 1758,
      "mit": 1759,
      "van": 1760,
      "ato": 1761,
      "ised": 1762,
      "rele": 1763,
      "exam": 1764,
      "bust": 1765,
      "hon": 1766,
      "hour": 1767,
      "sat": 1768,
      "leave": 1769,
      "oop": 1770,
      "shar": 1771,
      "ultim": 1772,
      "coming": 1773,
      "dogg": 1774,
      "els": 1775,
      "chicken": 1776,
      "earth": 1777,
      "testicles": 1778,
      "derogatory": 1779,
      "block": 1780,
      "rip": 1781,
      "stink": 1782,
      "beef": 1783,
      "thern": 1784,
      "ulation": 1785,
      "excess": 1786,
      "asses": 1787,
      "aine": 1788,
      "eats": 1789,
      "fit": 1790,
      "late": 1791,
      "past": 1792,
      "sum": 1793,
      "bey": 1794,
      "ution": 1795,
      "suc": 1796,
      "stead": 1797,
      "dre": 1798,
      "hun": 1799,
      "amaz": 1800,
      "irc": 1801,
      "cell": 1802,
      "persons": 1803,
      "pull": 1804,
      "sweat": 1805,
      "believ": 1806,
      "particularly": 1807,
      "bub": 1808,
      "eks": 1809,
      "fine": 1810,
      "gest": 1811,
      "oid": 1812,
      "wide": 1813,
      "veh": 1814,
      "tell": 1815,
      "butter": 1816,
      "turd": 1817,
      "buil": 1818,
      "african": 1819,
      "ok": 1820,
      "sess": 1821,
      "sive": 1822,
      "arily": 1823,
      "itive": 1824,
      "logy": 1825,
      "contr": 1826,
      "muff": 1827,
      "corn": 1828,
      "referring": 1829,
      "horr": 1830,
      "confused": 1831,
      "considered": 1832,
      "normally": 1833,
      "cup": 1834,
      "fake": 1835,
      "spl": 1836,
      "tv": 1837,
      "uc": 1838,
      "whate": 1839,
      "liqu": 1840,
      "perio": 1841,
      "deal": 1842,
      "exist": 1843,
      "span": 1844,
      "country": 1845,
      "orgasm": 1846,
      "bun": 1847,
      "gle": 1848,
      "pay": 1849,
      "vin": 1850,
      "ened": 1851,
      "yourself": 1852,
      "ended": 1853,
      "lesbian": 1854,
      "chode": 1855,
      "pretty": 1856,
      "bers": 1857,
      "gon": 1858,
      "ith": 1859,
      "ward": 1860,
      "tran": 1861,
      "sexually": 1862,
      "curr": 1863,
      "pronoun": 1864,
      "cigar": 1865,
      "wish": 1866,
      "cha": 1867,
      "ams": 1868,
      "perfect": 1869,
      "fresh": 1870,
      "slow": 1871,
      "normal": 1872,
      "family": 1873,
      "200": 1874,
      "almost": 1875,
      "aste": 1876,
      "ication": 1877,
      "ston": 1878,
      "ette": 1879,
      "verage": 1880,
      "funk": 1881,
      "ned": 1882,
      "nation": 1883,
      "sper": 1884,
      "living": 1885,
      "pee": 1886,
      "trip": 1887,
      "constant": 1888,
      "girlfriend": 1889,
      "john": 1890,
      "activity": 1891,
      "dump": 1892,
      "hate": 1893,
      "lat": 1894,
      "pwn": 1895,
      "x0r": 1896,
      "icated": 1897,
      "thats": 1898,
      "ural": 1899,
      "french": 1900,
      "crotch": 1901,
      "coc": 1902,
      "drive": 1903,
      "cheap": 1904,
      "bottom": 1905,
      "famous": 1906,
      "nickname": 1907,
      "nigga": 1908,
      "whatever": 1909,
      "rich": 1910,
      "sun": 1911,
      "inch": 1912,
      "ale": 1913,
      "isn": 1914,
      "ides": 1915,
      "trick": 1916,
      "interest": 1917,
      "series": 1918,
      "possibly": 1919,
      "dragon": 1920,
      "direct": 1921,
      "biz": 1922,
      "dest": 1923,
      "fash": 1924,
      "ien": 1925,
      "rot": 1926,
      "ret": 1927,
      "cker": 1928,
      "prom": 1929,
      "ement": 1930,
      "smack": 1931,
      "gence": 1932,
      "result": 1933,
      "hands": 1934,
      "chinese": 1935,
      "soft": 1936,
      "40": 1937,
      "sed": 1938,
      "ties": 1939,
      "ene": 1940,
      "aming": 1941,
      "hop": 1942,
      "vaginal": 1943,
      "paper": 1944,
      "brother": 1945,
      "www": 1946,
      "hur": 1947,
      "rat": 1948,
      "touch": 1949,
      "thy": 1950,
      "shut": 1951,
      "dep": 1952,
      "ney": 1953,
      "eless": 1954,
      "smart": 1955,
      "smell": 1956,
      "masturbation": 1957,
      "present": 1958,
      "nit": 1959,
      "rag": 1960,
      "sad": 1961,
      "pract": 1962,
      "german": 1963,
      "maj": 1964,
      "double": 1965,
      "police": 1966,
      "12": 1967,
      "doo": 1968,
      "four": 1969,
      "mac": 1970,
      "verse": 1971,
      "deep": 1972,
      "aked": 1973,
      "ified": 1974,
      "ously": 1975,
      "shitty": 1976,
      "coolest": 1977,
      "resul": 1978,
      "based": 1979,
      "enjoy": 1980,
      "cute": 1981,
      "ton": 1982,
      "wet": 1983,
      "west": 1984,
      "change": 1985,
      "shoo": 1986,
      "shoot": 1987,
      "roy": 1988,
      "cars": 1989,
      "condition": 1990,
      "33t": 1991,
      "eas": 1992,
      "mach": 1993,
      "ni": 1994,
      "sick": 1995,
      "inc": 1996,
      "chat": 1997,
      "hey": 1998,
      "trans": 1999,
      "otherwise": 2000,
      "max": 2001,
      "fully": 2002,
      "drinking": 2003,
      "bably": 2004,
      "fingers": 2005,
      "completely": 2006,
      "cocaine": 2007,
      "eve": 2008,
      "instead": 2009,
      "ison": 2010,
      "chill": 2011,
      "dec": 2012,
      "acting": 2013,
      "near": 2014,
      "probably": 2015,
      "liter": 2016,
      "booty": 2017,
      "pubic": 2018,
      "straight": 2019,
      "period": 2020,
      "cook": 2021,
      "mist": 2022,
      "nu": 2023,
      "tac": 2024,
      "whip": 2025,
      "user": 2026,
      "spot": 2027,
      "skank": 2028,
      "years": 2029,
      "days": 2030,
      "device": 2031,
      "hh": 2032,
      "mam": 2033,
      "tf": 2034,
      "weak": 2035,
      "personal": 2036,
      "ization": 2037,
      "greeting": 2038,
      "related": 2039,
      "basically": 2040,
      "fro": 2041,
      "ket": 2042,
      "kiss": 2043,
      "pat": 2044,
      "pir": 2045,
      "ric": 2046,
      "wel": 2047,
      "doll": 2048,
      "convers": 2049,
      "park": 2050,
      "walk": 2051,
      "typically": 2052,
      "associated": 2053,
      "secret": 2054,
      "beautiful": 2055,
      "fashion": 2056,
      "coo": 2057,
      "cam": 2058,
      "jump": 2059,
      "why": 2060,
      "ache": 2061,
      "tele": 2062,
      "tense": 2063,
      "causing": 2064,
      "uber": 2065,
      "north": 2066,
      "beyond": 2067,
      "sperm": 2068,
      "50": 2069,
      "ri": 2070,
      "rare": 2071,
      "itute": 2072,
      "whom": 2073,
      "andy": 2074,
      "lect": 2075,
      "shiz": 2076,
      "adv": 2077,
      "ively": 2078,
      "posed": 2079,
      "taken": 2080,
      "sounds": 2081,
      "rectum": 2082,
      "natur": 2083,
      "incred": 2084,
      "reach": 2085,
      "wild": 2086,
      "vern": 2087,
      "clown": 2088,
      "import": 2089,
      "apping": 2090,
      "snow": 2091,
      "bowl": 2092,
      "describing": 2093,
      "bomb": 2094,
      "ech": 2095,
      "lazy": 2096,
      "rod": 2097,
      "fection": 2098,
      "akes": 2099,
      "grow": 2100,
      "aving": 2101,
      "mental": 2102,
      "america": 2103,
      "compan": 2104,
      "happens": 2105,
      "mi": 2106,
      "mp": 2107,
      "pun": 2108,
      "thes": 2109,
      "level": 2110,
      "ignor": 2111,
      "absol": 2112,
      "explo": 2113,
      "polit": 2114,
      "clit": 2115,
      "stands": 2116,
      "anime": 2117,
      "mobile": 2118,
      "fruit": 2119,
      "spanish": 2120,
      "bis": 2121,
      "fail": 2122,
      "nature": 2123,
      "pill": 2124,
      "tu": 2125,
      "tor": 2126,
      "wall": 2127,
      "rec": 2128,
      "ford": 2129,
      "otic": 2130,
      "fear": 2131,
      "smelly": 2132,
      "moron": 2133,
      "species": 2134,
      "intelligence": 2135,
      "simply": 2136,
      "amazing": 2137,
      "aid": 2138,
      "wag": 2139,
      "zer": 2140,
      "bye": 2141,
      "wears": 2142,
      "mans": 2143,
      "conne": 2144,
      "teh": 2145,
      "uding": 2146,
      "wash": 2147,
      "surpr": 2148,
      "cross": 2149,
      "det": 2150,
      "loose": 2151,
      "mud": 2152,
      "chie": 2153,
      "forum": 2154,
      "lif": 2155,
      "extra": 2156,
      "noise": 2157,
      "gold": 2158,
      "dumbass": 2159,
      "lady": 2160,
      "substance": 2161,
      "easy": 2162,
      "pal": 2163,
      "va": 2164,
      "llo": 2165,
      "lol": 2166,
      "note": 2167,
      "illa": 2168,
      "ictionary": 2169,
      "attempt": 2170,
      "mexican": 2171,
      "cus": 2172,
      "fist": 2173,
      "wing": 2174,
      "ime": 2175,
      "road": 2176,
      "bitches": 2177,
      "referred": 2178,
      "frequently": 2179,
      "ben": 2180,
      "bath": 2181,
      "gust": 2182,
      "later": 2183,
      "mas": 2184,
      "ram": 2185,
      "sque": 2186,
      "heart": 2187,
      "defe": 2188,
      "moder": 2189,
      "respon": 2190,
      "attack": 2191,
      "legal": 2192,
      "ready": 2193,
      "mainly": 2194,
      "')": 2195,
      "bac": 2196,
      "fig": 2197,
      "gum": 2198,
      "atic": 2199,
      "und": 2200,
      "vert": 2201,
      "proble": 2202,
      "flat": 2203,
      "anks": 2204,
      "plays": 2205,
      "yeah": 2206,
      "understand": 2207,
      "members": 2208,
      "dat": 2209,
      "l33t": 2210,
      "psy": 2211,
      "san": 2212,
      "states": 2213,
      "tri": 2214,
      "feces": 2215,
      "weight": 2216,
      "dry": 2217,
      "ival": 2218,
      "claim": 2219,
      "design": 2220,
      "early": 2221,
      "include": 2222,
      "since": 2223,
      "negative": 2224,
      "?'": 2225,
      "favor": 2226,
      "although": 2227,
      "velo": 2228,
      "cream": 2229,
      "however": 2230,
      "original": 2231,
      "purpose": 2232,
      "dildo": 2233,
      "relig": 2234,
      "dip": 2235,
      "morn": 2236,
      "sli": 2237,
      "tie": 2238,
      "usion": 2239,
      "elite": 2240,
      "donkey": 2241,
      "clothing": 2242,
      "consum": 2243,
      "condom": 2244,
      "vision": 2245,
      "christ": 2246,
      "wonder": 2247,
      "daddy": 2248,
      "ultimate": 2249,
      "vehicle": 2250,
      "bone": 2251,
      "gro": 2252,
      "hi": 2253,
      "jes": 2254,
      "oper": 2255,
      "wack": 2256,
      "inform": 2257,
      "leet": 2258,
      "someones": 2259,
      "cold": 2260,
      "weap": 2261,
      "proceed": 2262,
      "ments": 2263,
      "prefer": 2264,
      "boobs": 2265,
      "contin": 2266,
      "smells": 2267,
      "thought": 2268,
      "domin": 2269,
      "jerk": 2270,
      "british": 2271,
      "11": 2272,
      "dies": 2273,
      "ride": 2274,
      "thug": 2275,
      "lie": 2276,
      "imm": 2277,
      "goat": 2278,
      "disgust": 2279,
      "highly": 2280,
      "consist": 2281,
      "heavy": 2282,
      "filled": 2283,
      "cake": 2284,
      "duck": 2285,
      "jig": 2286,
      "might": 2287,
      "race": 2288,
      "sor": 2289,
      "ices": 2290,
      "few": 2291,
      "strange": 2292,
      "waste": 2293,
      "sucking": 2294,
      "attention": 2295,
      "cali": 2296,
      "skills": 2297,
      "laughing": 2298,
      "several": 2299,
      "90": 2300,
      "cun": 2301,
      "ease": 2302,
      "hist": 2303,
      "ppy": 2304,
      "ses": 2305,
      "sac": 2306,
      "sci": 2307,
      "tic": 2308,
      "thin": 2309,
      "lla": 2310,
      "aps": 2311,
      "cry": 2312,
      "spam": 2313,
      "clan": 2314,
      "lots": 2315,
      "ejaculate": 2316,
      "college": 2317,
      "culture": 2318,
      "lam": 2319,
      "nic": 2320,
      "nug": 2321,
      "next": 2322,
      "pho": 2323,
      "swi": 2324,
      "xy": 2325,
      "esp": 2326,
      "useless": 2327,
      "within": 2328,
      "entire": 2329,
      "aped": 2330,
      "ield": 2331,
      "govern": 2332,
      "hero": 2333,
      "istic": 2334,
      "emp": 2335,
      "purple": 2336,
      "amounts": 2337,
      "ladies": 2338,
      "natural": 2339,
      "base": 2340,
      "fut": 2341,
      "mr": 2342,
      "rice": 2343,
      "sus": 2344,
      "onk": 2345,
      "icy": 2346,
      "teeth": 2347,
      "joint": 2348,
      "womans": 2349,
      "variation": 2350,
      "resembles": 2351,
      "pipe": 2352,
      "absolute": 2353,
      "rul": 2354,
      "rup": 2355,
      "uk": 2356,
      "ener": 2357,
      "ening": 2358,
      "robot": 2359,
      "joy": 2360,
      "ought": 2361,
      "played": 2362,
      "berry": 2363,
      "yellow": 2364,
      "writ": 2365,
      "relation": 2366,
      "needs": 2367,
      "milk": 2368,
      "physical": 2369,
      "example": 2370,
      "morning": 2371,
      "munch": 2372,
      "n00": 2373,
      "pow": 2374,
      "sam": 2375,
      "sion": 2376,
      "stim": 2377,
      "heard": 2378,
      "anti": 2379,
      "fucks": 2380,
      "forms": 2381,
      "parts": 2382,
      "tains": 2383,
      "various": 2384,
      "site": 2385,
      "acy": 2386,
      "bel": 2387,
      "door": 2388,
      "grand": 2389,
      "phil": 2390,
      "spell": 2391,
      "twat": 2392,
      "chicks": 2393,
      "arms": 2394,
      "addict": 2395,
      "business": 2396,
      "dub": 2397,
      "lab": 2398,
      "tub": 2399,
      "woo": 2400,
      "repe": 2401,
      "chest": 2402,
      "wife": 2403,
      "irish": 2404,
      "worst": 2405,
      "deli": 2406,
      "spir": 2407,
      "prost": 2408,
      "sky": 2409,
      "ciation": 2410,
      "bands": 2411,
      "italian": 2412,
      "ledge": 2413,
      "nipples": 2414,
      "constantly": 2415,
      "cast": 2416,
      "five": 2417,
      "jun": 2418,
      "slight": 2419,
      "taste": 2420,
      "ined": 2421,
      "bee": 2422,
      "lover": 2423,
      "nel": 2424,
      "necess": 2425,
      "draw": 2426,
      "spin": 2427,
      "spread": 2428,
      "erect": 2429,
      "idea": 2430,
      "descrip": 2431,
      "major": 2432,
      "machine": 2433,
      "conversation": 2434,
      "egg": 2435,
      "lower": 2436,
      "ron": 2437,
      "thor": 2438,
      "thick": 2439,
      "onto": 2440,
      "recor": 2441,
      "feet": 2442,
      "udge": 2443,
      "shortened": 2444,
      "rapper": 2445,
      "single": 2446,
      "atures": 2447,
      "30": 2448,
      "ather": 2449,
      "fi": 2450,
      "gor": 2451,
      "pc": 2452,
      "rep": 2453,
      "rece": 2454,
      "cher": 2455,
      "aged": 2456,
      "worn": 2457,
      "upper": 2458,
      "mod": 2459,
      "week": 2460,
      "offic": 2461,
      "pretend": 2462,
      "obsess": 2463,
      "serv": 2464,
      "buff": 2465,
      "chocol": 2466,
      "hello": 2467,
      "believe": 2468,
      "involving": 2469,
      "football": 2470,
      "shirt": 2471,
      "born": 2472,
      "eu": 2473,
      "fet": 2474,
      "hab": 2475,
      "noo": 2476,
      "sour": 2477,
      "tar": 2478,
      "towards": 2479,
      "itude": 2480,
      "requ": 2481,
      "iling": 2482,
      "causes": 2483,
      "function": 2484,
      "originated": 2485,
      "fluid": 2486,
      "government": 2487,
      "ai": 2488,
      "cli": 2489,
      "ctr": 2490,
      "lord": 2491,
      "mart": 2492,
      "nar": 2493,
      "rom": 2494,
      "wich": 2495,
      "ances": 2496,
      "ency": 2497,
      "usty": 2498,
      "stor": 2499
    },
    "merges": [
      [
        "t",
        "h"
      ],
      [
        "i",
        "n"
      ],
      [
        "a",
        "n"
      ],
      [
        "e",
        "r"
      ],
      [
        "E",
        "P"
      ],
      [
        "S",
        "EP"
      ],
      [
        "o",
        "n"
      ],
      [
        "o",
        "r"
      ],
      [
        "th",
        "e"
      ],
      [
        "a",
        "t"
      ],
      [
        "a",
        "l"
      ],
      [
        "e",
        "n"
      ],
      [
        "e",
        "s"
      ],
      [
        "in",
        "g"
      ],
      [
        "o",
        "u"
      ],
      [
        "t",
        "o"
      ],
      [
        "a",
        "r"
      ],
      [
        "i",
        "s"
      ],
      [
        "o",
        "f"
      ],
      [
        "e",
        "d"
      ],
      [
        "i",
        "t"
      ],
      [
        "a",
        "s"
      ],
      [
        "o",
        "m"
      ],
      [
        "w",
        "h"
      ],
      [
        "r",
        "e"
      ],
      [
        "an",
        "d"
      ],
      [
        "i",
        "c"
      ],
      [
        "l",
        "e"
      ],
      [
        "u",
        "s"
      ],
      [
        "l",
        "y"
      ],
      [
        "a",
        "c"
      ],
      [
        "s",
        "e"
      ],
      [
        "s",
        "t"
      ],
      [
        "c",
        "h"
      ],
      [
        "b",
        "e"
      ],
      [
        "o",
        "o"
      ],
      [
        "f",
        "or"
      ],
      [
        "y",
        "ou"
      ],
      [
        "a",
        "m"
      ],
      [
        "i",
        "on"
      ],
      [
        ";",
        ";"
      ],
      [
        "s",
        "h"
      ],
      [
        "on",
        "e"
      ],
      [
        "o",
        "w"
      ],
      [
        "u",
        "n"
      ],
      [
        "a",
        "d"
      ],
      [
        "w",
        "i"
      ],
      [
        "l",
        "i"
      ],
      [
        "e",
        "t"
      ],
      [
        "o",
        "t"
      ],
      [
        "t",
        "er"
      ],
      [
        "i",
        "r"
      ],
      [
        "l",
        "l"
      ],
      [
        "th",
        "at"
      ],
      [
        "a",
        "y"
      ],
      [
        "om",
        "e"
      ],
      [
        "c",
        "k"
      ],
      [
        "wh",
        "o"
      ],
      [
        "v",
        "e"
      ],
      [
        "v",
        "er"
      ],
      [
        "i",
        "d"
      ],
      [
        "k",
        "e"
      ],
      [
        "p",
        "er"
      ],
      [
        "i",
        "m"
      ],
      [
        "u",
        "t"
      ],
      [
        "r",
        "o"
      ],
      [
        "i",
        "g"
      ],
      [
        "wi",
        "th"
      ],
      [
        "s",
        "ome"
      ],
      [
        "en",
        "t"
      ],
      [
        "a",
        "g"
      ],
      [
        "p",
        "e"
      ],
      [
        "u",
        "r"
      ],
      [
        "f",
        "r"
      ],
      [
        "al",
        "l"
      ],
      [
        "w",
        "or"
      ],
      [
        "al",
        "ly"
      ],
      [
        "th",
        "er"
      ],
      [
        "s",
        "o"
      ],
      [
        "h",
        "e"
      ],
      [
        "a",
        "b"
      ],
      [
        "d",
        "e"
      ],
      [
        "m",
        "e"
      ],
      [
        "a",
        "p"
      ],
      [
        "u",
        "m"
      ],
      [
        "u",
        "l"
      ],
      [
        "u",
        "p"
      ],
      [
        ".",
        "."
      ],
      [
        "t",
        "r"
      ],
      [
        "l",
        "o"
      ],
      [
        "e",
        "x"
      ],
      [
        "as",
        "s"
      ],
      [
        "p",
        "o"
      ],
      [
        "u",
        "ck"
      ],
      [
        "c",
        "e"
      ],
      [
        "m",
        "o"
      ],
      [
        "b",
        "y"
      ],
      [
        "i",
        "l"
      ],
      [
        "f",
        "e"
      ],
      [
        "c",
        "r"
      ],
      [
        "c",
        "om"
      ],
      [
        "es",
        "s"
      ],
      [
        "ou",
        "n"
      ],
      [
        "s",
        "on"
      ],
      [
        "ac",
        "k"
      ],
      [
        "ou",
        "t"
      ],
      [
        "wh",
        "en"
      ],
      [
        "ic",
        "k"
      ],
      [
        "th",
        "ing"
      ],
      [
        "us",
        "ed"
      ],
      [
        "h",
        "a"
      ],
      [
        "c",
        "o"
      ],
      [
        "p",
        "l"
      ],
      [
        "w",
        "e"
      ],
      [
        "es",
        "t"
      ],
      [
        "m",
        "an"
      ],
      [
        "at",
        "ion"
      ],
      [
        "d",
        "o"
      ],
      [
        "b",
        "o"
      ],
      [
        "ar",
        "e"
      ],
      [
        "c",
        "t"
      ],
      [
        "wor",
        "d"
      ],
      [
        "an",
        "g"
      ],
      [
        "ac",
        "t"
      ],
      [
        "you",
        "r"
      ],
      [
        "per",
        "son"
      ],
      [
        "se",
        "x"
      ],
      [
        "l",
        "d"
      ],
      [
        "c",
        "on"
      ],
      [
        "n",
        "o"
      ],
      [
        "p",
        "r"
      ],
      [
        "a",
        "k"
      ],
      [
        "at",
        "e"
      ],
      [
        "an",
        "t"
      ],
      [
        "fr",
        "om"
      ],
      [
        "t",
        "e"
      ],
      [
        "q",
        "u"
      ],
      [
        "p",
        "le"
      ],
      [
        "n",
        "e"
      ],
      [
        "ow",
        "n"
      ],
      [
        "b",
        "ut"
      ],
      [
        "ar",
        "d"
      ],
      [
        "t",
        "y"
      ],
      [
        "b",
        "l"
      ],
      [
        "d",
        "r"
      ],
      [
        "some",
        "one"
      ],
      [
        "ig",
        "h"
      ],
      [
        "f",
        "uck"
      ],
      [
        "i",
        "e"
      ],
      [
        "n",
        "ot"
      ],
      [
        "am",
        "e"
      ],
      [
        "a",
        "in"
      ],
      [
        "i",
        "ve"
      ],
      [
        "c",
        "an"
      ],
      [
        "s",
        "u"
      ],
      [
        "en",
        "d"
      ],
      [
        "m",
        "al"
      ],
      [
        "ar",
        "t"
      ],
      [
        "li",
        "ke"
      ],
      [
        "o",
        "ther"
      ],
      [
        "g",
        "o"
      ],
      [
        "as",
        "t"
      ],
      [
        "i",
        "f"
      ],
      [
        "g",
        "r"
      ],
      [
        "s",
        "l"
      ],
      [
        "g",
        "h"
      ],
      [
        "g",
        "e"
      ],
      [
        "se",
        "e"
      ],
      [
        "ou",
        "s"
      ],
      [
        "h",
        "o"
      ],
      [
        "er",
        "s"
      ],
      [
        "i",
        "z"
      ],
      [
        "s",
        "p"
      ],
      [
        "g",
        "et"
      ],
      [
        "al",
        "so"
      ],
      [
        "p",
        "en"
      ],
      [
        "h",
        "er"
      ],
      [
        "oun",
        "d"
      ],
      [
        "i",
        "v"
      ],
      [
        "ver",
        "y"
      ],
      [
        "an",
        "y"
      ],
      [
        "oo",
        "d"
      ],
      [
        "p",
        "ro"
      ],
      [
        "i",
        "p"
      ],
      [
        "h",
        "as"
      ],
      [
        "ac",
        "e"
      ],
      [
        "is",
        "t"
      ],
      [
        "i",
        "es"
      ],
      [
        "the",
        "y"
      ],
      [
        "d",
        "er"
      ],
      [
        "u",
        "ally"
      ],
      [
        "mal",
        "e"
      ],
      [
        "u",
        "al"
      ],
      [
        "k",
        "n"
      ],
      [
        "it",
        "e"
      ],
      [
        "i",
        "ll"
      ],
      [
        "it",
        "y"
      ],
      [
        "in",
        "d"
      ],
      [
        "c",
        "l"
      ],
      [
        "a",
        "f"
      ],
      [
        "is",
        "h"
      ],
      [
        "e",
        "l"
      ],
      [
        "in",
        "k"
      ],
      [
        "b",
        "r"
      ],
      [
        "us",
        "t"
      ],
      [
        "h",
        "is"
      ],
      [
        "some",
        "thing"
      ],
      [
        "sh",
        "it"
      ],
      [
        "or",
        "e"
      ],
      [
        "on",
        "g"
      ],
      [
        "oo",
        "l"
      ],
      [
        "g",
        "ir"
      ],
      [
        "a",
        "ke"
      ],
      [
        "ha",
        "ve"
      ],
      [
        "or",
        "t"
      ],
      [
        "ic",
        "h"
      ],
      [
        "gir",
        "l"
      ],
      [
        "us",
        "e"
      ],
      [
        "s",
        "y"
      ],
      [
        "d",
        "es"
      ],
      [
        "igh",
        "t"
      ],
      [
        "ter",
        "m"
      ],
      [
        "w",
        "ay"
      ],
      [
        "p",
        "h"
      ],
      [
        "e",
        "m"
      ],
      [
        "t",
        "en"
      ],
      [
        "oo",
        "k"
      ],
      [
        "m",
        "on"
      ],
      [
        "pe",
        "o"
      ],
      [
        "us",
        "ually"
      ],
      [
        "ag",
        "e"
      ],
      [
        "u",
        "g"
      ],
      [
        "j",
        "o"
      ],
      [
        "an",
        "s"
      ],
      [
        "g",
        "u"
      ],
      [
        "peo",
        "ple"
      ],
      [
        "i",
        "le"
      ],
      [
        "f",
        "l"
      ],
      [
        "th",
        "is"
      ],
      [
        "er",
        "e"
      ],
      [
        "w",
        "om"
      ],
      [
        "ic",
        "e"
      ],
      [
        "t",
        "im"
      ],
      [
        "c",
        "re"
      ],
      [
        "wh",
        "ich"
      ],
      [
        "c",
        "a"
      ],
      [
        "of",
        "f"
      ],
      [
        "pen",
        "is"
      ],
      [
        "s",
        "m"
      ],
      [
        "i",
        "b"
      ],
      [
        "..",
        "."
      ],
      [
        "in",
        "e"
      ],
      [
        "at",
        "ed"
      ],
      [
        "s",
        "k"
      ],
      [
        "u",
        "b"
      ],
      [
        "a",
        "v"
      ],
      [
        "st",
        "r"
      ],
      [
        "c",
        "i"
      ],
      [
        "m",
        "ent"
      ],
      [
        "s",
        "pe"
      ],
      [
        "the",
        "ir"
      ],
      [
        "wh",
        "at"
      ],
      [
        "g",
        "re"
      ],
      [
        "sex",
        "ual"
      ],
      [
        "u",
        "re"
      ],
      [
        "it",
        "s"
      ],
      [
        "f",
        "er"
      ],
      [
        "i",
        "an"
      ],
      [
        "o",
        "l"
      ],
      [
        "a",
        "z"
      ],
      [
        "c",
        "ar"
      ],
      [
        "!",
        "!"
      ],
      [
        "s",
        "ay"
      ],
      [
        "for",
        "m"
      ],
      [
        "id",
        "e"
      ],
      [
        "ou",
        "gh"
      ],
      [
        "an",
        "k"
      ],
      [
        "it",
        "ch"
      ],
      [
        "po",
        "s"
      ],
      [
        "ab",
        "le"
      ],
      [
        "a",
        "w"
      ],
      [
        "g",
        "en"
      ],
      [
        "t",
        "ing"
      ],
      [
        "m",
        "y"
      ],
      [
        "ou",
        "r"
      ],
      [
        "j",
        "e"
      ],
      [
        "mo",
        "st"
      ],
      [
        "he",
        "ad"
      ],
      [
        "d",
        "is"
      ],
      [
        "pl",
        "ay"
      ],
      [
        "e",
        "v"
      ],
      [
        "u",
        "d"
      ],
      [
        "g",
        "ood"
      ],
      [
        "be",
        "ing"
      ],
      [
        "ch",
        "e"
      ],
      [
        "in",
        "s"
      ],
      [
        "]",
        "."
      ],
      [
        "o",
        "ver"
      ],
      [
        "d",
        "y"
      ],
      [
        "un",
        "k"
      ],
      [
        "ou",
        "ld"
      ],
      [
        "b",
        "er"
      ],
      [
        "c",
        "ool"
      ],
      [
        "j",
        "ust"
      ],
      [
        "of",
        "ten"
      ],
      [
        "gu",
        "y"
      ],
      [
        "r",
        "es"
      ],
      [
        "v",
        "ing"
      ],
      [
        "an",
        "other"
      ],
      [
        "co",
        "ck"
      ],
      [
        "in",
        "to"
      ],
      [
        "sh",
        "e"
      ],
      [
        "p",
        "art"
      ],
      [
        "ac",
        "h"
      ],
      [
        "the",
        "m"
      ],
      [
        "ex",
        "t"
      ],
      [
        "d",
        "u"
      ],
      [
        "b",
        "all"
      ],
      [
        "at",
        "ing"
      ],
      [
        "p",
        "u"
      ],
      [
        "'",
        "."
      ],
      [
        "h",
        "om"
      ],
      [
        "n",
        "ame"
      ],
      [
        "t",
        "w"
      ],
      [
        "l",
        "ook"
      ],
      [
        "m",
        "ore"
      ],
      [
        "y",
        "e"
      ],
      [
        "f",
        "f"
      ],
      [
        "fr",
        "i"
      ],
      [
        "m",
        "ar"
      ],
      [
        "t",
        "s"
      ],
      [
        "fe",
        "male"
      ],
      [
        "re",
        "ally"
      ],
      [
        "p",
        "re"
      ],
      [
        "in",
        "ter"
      ],
      [
        "e",
        "p"
      ],
      [
        "i",
        "a"
      ],
      [
        "sl",
        "ang"
      ],
      [
        "b",
        "re"
      ],
      [
        "des",
        "cr"
      ],
      [
        "tim",
        "e"
      ],
      [
        "w",
        "as"
      ],
      [
        "ad",
        "e"
      ],
      [
        "wom",
        "an"
      ],
      [
        "fri",
        "end"
      ],
      [
        "be",
        "t"
      ],
      [
        "b",
        "itch"
      ],
      [
        "i",
        "ous"
      ],
      [
        "g",
        "ay"
      ],
      [
        "n",
        "er"
      ],
      [
        "im",
        "p"
      ],
      [
        "wh",
        "ere"
      ],
      [
        "b",
        "ig"
      ],
      [
        "th",
        "an"
      ],
      [
        "d",
        "on"
      ],
      [
        "m",
        "u"
      ],
      [
        "en",
        "ce"
      ],
      [
        "me",
        "an"
      ],
      [
        "b",
        "ack"
      ],
      [
        "af",
        "ter"
      ],
      [
        "as",
        "e"
      ],
      [
        "e",
        "very"
      ],
      [
        "l",
        "ar"
      ],
      [
        "kn",
        "ow"
      ],
      [
        "o",
        "b"
      ],
      [
        "ul",
        "ar"
      ],
      [
        "k",
        "ing"
      ],
      [
        "l",
        "it"
      ],
      [
        "d",
        "ick"
      ],
      [
        "ul",
        "t"
      ],
      [
        "se",
        "l"
      ],
      [
        "kn",
        "own"
      ],
      [
        "iz",
        "z"
      ],
      [
        "an",
        "ce"
      ],
      [
        "the",
        "n"
      ],
      [
        "g",
        "l"
      ],
      [
        "s",
        "er"
      ],
      [
        "e",
        "ver"
      ],
      [
        "s",
        "a"
      ],
      [
        "t",
        "le"
      ],
      [
        "f",
        "ace"
      ],
      [
        "wi",
        "ll"
      ],
      [
        "ag",
        "in"
      ],
      [
        "m",
        "en"
      ],
      [
        "je",
        "ct"
      ],
      [
        "st",
        "up"
      ],
      [
        "g",
        "er"
      ],
      [
        "v",
        "es"
      ],
      [
        "h",
        "igh"
      ],
      [
        "ha",
        "ir"
      ],
      [
        "p",
        "ar"
      ],
      [
        "stup",
        "id"
      ],
      [
        "d",
        "own"
      ],
      [
        "on",
        "ly"
      ],
      [
        "in",
        "t"
      ],
      [
        "b",
        "ad"
      ],
      [
        "as",
        "h"
      ],
      [
        "ic",
        "al"
      ],
      [
        "sh",
        "ort"
      ],
      [
        "l",
        "es"
      ],
      [
        "y",
        "s"
      ],
      [
        "ab",
        "out"
      ],
      [
        "it",
        "ion"
      ],
      [
        "f",
        "at"
      ],
      [
        "s",
        "c"
      ],
      [
        "p",
        "us"
      ],
      [
        "es",
        "e"
      ],
      [
        "v",
        "agin"
      ],
      [
        "p",
        "t"
      ],
      [
        "h",
        "ot"
      ],
      [
        "gre",
        "at"
      ],
      [
        "t",
        "al"
      ],
      [
        "to",
        "o"
      ],
      [
        "0",
        "0"
      ],
      [
        "f",
        "o"
      ],
      [
        "re",
        "me"
      ],
      [
        "wh",
        "ile"
      ],
      [
        "ca",
        "use"
      ],
      [
        "m",
        "a"
      ],
      [
        "ap",
        "p"
      ],
      [
        "c",
        "all"
      ],
      [
        "pr",
        "ess"
      ],
      [
        "f",
        "un"
      ],
      [
        "un",
        "der"
      ],
      [
        "ar",
        "ound"
      ],
      [
        "un",
        "t"
      ],
      [
        "i",
        "re"
      ],
      [
        "s",
        "uck"
      ],
      [
        "do",
        "es"
      ],
      [
        "i",
        "be"
      ],
      [
        "sh",
        "o"
      ],
      [
        "d",
        "ay"
      ],
      [
        "s",
        "n"
      ],
      [
        "th",
        "r"
      ],
      [
        "t",
        "ur"
      ],
      [
        "c",
        "or"
      ],
      [
        "pl",
        "ace"
      ],
      [
        "um",
        "p"
      ],
      [
        "f",
        "in"
      ],
      [
        "sm",
        "all"
      ],
      [
        "m",
        "ake"
      ],
      [
        "l",
        "ong"
      ],
      [
        "ther",
        "e"
      ],
      [
        "t",
        "ain"
      ],
      [
        "hom",
        "o"
      ],
      [
        "com",
        "mon"
      ],
      [
        "h",
        "and"
      ],
      [
        "u",
        "e"
      ],
      [
        "th",
        "ink"
      ],
      [
        "po",
        "p"
      ],
      [
        "is",
        "s"
      ],
      [
        "n",
        "y"
      ],
      [
        "m",
        "ak"
      ],
      [
        "at",
        "er"
      ],
      [
        "lar",
        "ge"
      ],
      [
        "m",
        "us"
      ],
      [
        "b",
        "u"
      ],
      [
        "sel",
        "f"
      ],
      [
        "ke",
        "y"
      ],
      [
        "le",
        "t"
      ],
      [
        "k",
        "es"
      ],
      [
        "descr",
        "ibe"
      ],
      [
        "n",
        "or"
      ],
      [
        "r",
        "y"
      ],
      [
        "m",
        "ade"
      ],
      [
        "b",
        "oo"
      ],
      [
        "ver",
        "s"
      ],
      [
        "ct",
        "ion"
      ],
      [
        "v",
        "i"
      ],
      [
        "b",
        "le"
      ],
      [
        "g",
        "ame"
      ],
      [
        ".",
        ")"
      ],
      [
        "s",
        "s"
      ],
      [
        "b",
        "est"
      ],
      [
        "wor",
        "ld"
      ],
      [
        "f",
        "ul"
      ],
      [
        "at",
        "ch"
      ],
      [
        "a",
        "h"
      ],
      [
        "re",
        "fer"
      ],
      [
        "bo",
        "dy"
      ],
      [
        "b",
        "ur"
      ],
      [
        "ne",
        "w"
      ],
      [
        "on",
        "es"
      ],
      [
        "ar",
        "s"
      ],
      [
        "ext",
        "reme"
      ],
      [
        "]",
        ","
      ],
      [
        "r",
        "ed"
      ],
      [
        "co",
        "l"
      ],
      [
        "ow",
        "er"
      ],
      [
        "f",
        "re"
      ],
      [
        "s",
        "ch"
      ],
      [
        "ic",
        "an"
      ],
      [
        "n",
        "oun"
      ],
      [
        "at",
        "es"
      ],
      [
        "am",
        "er"
      ],
      [
        "or",
        "y"
      ],
      [
        "l",
        "ess"
      ],
      [
        "p",
        "oo"
      ],
      [
        "ar",
        "y"
      ],
      [
        "a",
        "u"
      ],
      [
        "ha",
        "ving"
      ],
      [
        "w",
        "ant"
      ],
      [
        "wh",
        "ite"
      ],
      [
        "vagin",
        "a"
      ],
      [
        "g",
        "g"
      ],
      [
        "h",
        "um"
      ],
      [
        "j",
        "u"
      ],
      [
        "me",
        "ans"
      ],
      [
        "ch",
        "o"
      ],
      [
        "n",
        "et"
      ],
      [
        "mu",
        "ch"
      ],
      [
        "ou",
        "th"
      ],
      [
        "tr",
        "y"
      ],
      [
        "p",
        "s"
      ],
      [
        "mean",
        "ing"
      ],
      [
        "c",
        "ur"
      ],
      [
        "h",
        "im"
      ],
      [
        "re",
        "al"
      ],
      [
        "fuck",
        "ing"
      ],
      [
        "k",
        "s"
      ],
      [
        "t",
        "ard"
      ],
      [
        "w",
        "r"
      ],
      [
        "on",
        "y"
      ],
      [
        "but",
        "t"
      ],
      [
        "f",
        "u"
      ],
      [
        "ic",
        "ally"
      ],
      [
        "st",
        "e"
      ],
      [
        "we",
        "en"
      ],
      [
        "lit",
        "tle"
      ],
      [
        "h",
        "ard"
      ],
      [
        "li",
        "fe"
      ],
      [
        "pus",
        "sy"
      ],
      [
        "bl",
        "ack"
      ],
      [
        "bo",
        "y"
      ],
      [
        "i",
        "o"
      ],
      [
        "i",
        "al"
      ],
      [
        "c",
        "ess"
      ],
      [
        "c",
        "lo"
      ],
      [
        "is",
        "e"
      ],
      [
        "e",
        "f"
      ],
      [
        "c",
        "le"
      ],
      [
        "su",
        "b"
      ],
      [
        "g",
        "ot"
      ],
      [
        "s",
        "im"
      ],
      [
        "be",
        "cause"
      ],
      [
        "tw",
        "o"
      ],
      [
        "s",
        "ame"
      ],
      [
        "t",
        "ak"
      ],
      [
        "s",
        "mo"
      ],
      [
        "-",
        "-"
      ],
      [
        "c",
        "um"
      ],
      [
        "b",
        "and"
      ],
      [
        "o",
        "ld"
      ],
      [
        "qu",
        "e"
      ],
      [
        "p",
        "a"
      ],
      [
        "'",
        ","
      ],
      [
        "r",
        "a"
      ],
      [
        "re",
        "l"
      ],
      [
        "g",
        "iv"
      ],
      [
        "go",
        "d"
      ],
      [
        "su",
        "ch"
      ],
      [
        "h",
        "ow"
      ],
      [
        "bet",
        "ween"
      ],
      [
        ".",
        "'"
      ],
      [
        "con",
        "t"
      ],
      [
        "ch",
        "ar"
      ],
      [
        "p",
        "ut"
      ],
      [
        "gen",
        "er"
      ],
      [
        "man",
        "y"
      ],
      [
        ")",
        "."
      ],
      [
        "th",
        "o"
      ],
      [
        "ic",
        "t"
      ],
      [
        "oo",
        "t"
      ],
      [
        "s",
        "we"
      ],
      [
        "ex",
        "press"
      ],
      [
        "homo",
        "sexual"
      ],
      [
        "at",
        "t"
      ],
      [
        "p",
        "ie"
      ],
      [
        "to",
        "p"
      ],
      [
        "m",
        "in"
      ],
      [
        "o",
        "p"
      ],
      [
        "ur",
        "b"
      ],
      [
        "c",
        "oun"
      ],
      [
        "or",
        "g"
      ],
      [
        "or",
        "ig"
      ],
      [
        "n",
        "ut"
      ],
      [
        "e",
        "at"
      ],
      [
        "w",
        "ould"
      ],
      [
        "or",
        "n"
      ],
      [
        "ch",
        "ick"
      ],
      [
        "li",
        "kes"
      ],
      [
        "um",
        "b"
      ],
      [
        "any",
        "thing"
      ],
      [
        "c",
        "es"
      ],
      [
        "con",
        "s"
      ],
      [
        "com",
        "p"
      ],
      [
        "le",
        "g"
      ],
      [
        "m",
        "ay"
      ],
      [
        "i",
        "ly"
      ],
      [
        "i",
        "x"
      ],
      [
        "it",
        "al"
      ],
      [
        "a",
        "il"
      ],
      [
        "st",
        "ick"
      ],
      [
        "i",
        "ed"
      ],
      [
        "k",
        "id"
      ],
      [
        "st",
        "ate"
      ],
      [
        "ll",
        "ing"
      ],
      [
        "f",
        "ound"
      ],
      [
        "lo",
        "ve"
      ],
      [
        "b",
        "ag"
      ],
      [
        "g",
        "a"
      ],
      [
        "s",
        "ound"
      ],
      [
        "a",
        "th"
      ],
      [
        "c",
        "ome"
      ],
      [
        "un",
        "ch"
      ],
      [
        "b",
        "as"
      ],
      [
        "f",
        "ir"
      ],
      [
        "orig",
        "in"
      ],
      [
        "c",
        "ent"
      ],
      [
        "ib",
        "le"
      ],
      [
        "t",
        "ake"
      ],
      [
        "d",
        "ir"
      ],
      [
        "n",
        "ess"
      ],
      [
        "s",
        "it"
      ],
      [
        "s",
        "me"
      ],
      [
        "act",
        "ion"
      ],
      [
        "et",
        "c"
      ],
      [
        "ony",
        "m"
      ],
      [
        "c",
        "al"
      ],
      [
        "sh",
        "ow"
      ],
      [
        "d",
        "a"
      ],
      [
        "s",
        "w"
      ],
      [
        "st",
        "and"
      ],
      [
        "an",
        "us"
      ],
      [
        "for",
        "e"
      ],
      [
        "f",
        "ag"
      ],
      [
        "ig",
        "n"
      ],
      [
        "an",
        "al"
      ],
      [
        "ou",
        "p"
      ],
      [
        "st",
        "er"
      ],
      [
        "ro",
        "ck"
      ],
      [
        "ant",
        "s"
      ],
      [
        "su",
        "per"
      ],
      [
        "at",
        "ive"
      ],
      [
        "ut",
        "e"
      ],
      [
        "as",
        "ter"
      ],
      [
        "ar",
        "m"
      ],
      [
        "n",
        "a"
      ],
      [
        "an",
        "a"
      ],
      [
        "b",
        "s"
      ],
      [
        "m",
        "outh"
      ],
      [
        "cr",
        "ack"
      ],
      [
        "a",
        "ir"
      ],
      [
        "to",
        "m"
      ],
      [
        "we",
        "ll"
      ],
      [
        "girl",
        "s"
      ],
      [
        "en",
        "s"
      ],
      [
        "s",
        "om"
      ],
      [
        "in",
        "v"
      ],
      [
        "u",
        "ff"
      ],
      [
        "ad",
        "d"
      ],
      [
        "li",
        "gh"
      ],
      [
        "[",
        "/"
      ],
      [
        "dr",
        "ink"
      ],
      [
        "ev",
        "en"
      ],
      [
        "mus",
        "ic"
      ],
      [
        "ver",
        "b"
      ],
      [
        "g",
        "am"
      ],
      [
        "us",
        "ing"
      ],
      [
        "az",
        "y"
      ],
      [
        "l",
        "ine"
      ],
      [
        "f",
        "art"
      ],
      [
        "an",
        "im"
      ],
      [
        "st",
        "y"
      ],
      [
        "do",
        "g"
      ],
      [
        "be",
        "en"
      ],
      [
        "p",
        "ed"
      ],
      [
        "g",
        "ang"
      ],
      [
        "z",
        "z"
      ],
      [
        "w",
        "n"
      ],
      [
        "c",
        "our"
      ],
      [
        "wor",
        "k"
      ],
      [
        "sa",
        "id"
      ],
      [
        "b",
        "ab"
      ],
      [
        "r",
        "ight"
      ],
      [
        "n",
        "am"
      ],
      [
        "word",
        "s"
      ],
      [
        "g",
        "y"
      ],
      [
        "p",
        "ing"
      ],
      [
        "c",
        "ed"
      ],
      [
        "de",
        "fin"
      ],
      [
        "b",
        "us"
      ],
      [
        "thing",
        "s"
      ],
      [
        "con",
        "d"
      ],
      [
        "sy",
        "n"
      ],
      [
        "extreme",
        "ly"
      ],
      [
        "h",
        "y"
      ],
      [
        "so",
        "ci"
      ],
      [
        "ug",
        "ly"
      ],
      [
        "s",
        "ur"
      ],
      [
        "p",
        "imp"
      ],
      [
        "c",
        "y"
      ],
      [
        "l",
        "ot"
      ],
      [
        "r",
        "un"
      ],
      [
        "get",
        "s"
      ],
      [
        "en",
        "g"
      ],
      [
        "com",
        "ple"
      ],
      [
        "wom",
        "en"
      ],
      [
        "a",
        "ve"
      ],
      [
        "one",
        "y"
      ],
      [
        "re",
        "tard"
      ],
      [
        "h",
        "or"
      ],
      [
        "sl",
        "ut"
      ],
      [
        "ro",
        "om"
      ],
      [
        "com",
        "m"
      ],
      [
        "i",
        "ot"
      ],
      [
        "y",
        "o"
      ],
      [
        "at",
        "ure"
      ],
      [
        "is",
        "m"
      ],
      [
        "pos",
        "s"
      ],
      [
        "b",
        "ot"
      ],
      [
        "d",
        "am"
      ],
      [
        "s",
        "cr"
      ],
      [
        "say",
        "ing"
      ],
      [
        "ll",
        "ow"
      ],
      [
        "fe",
        "el"
      ],
      [
        "with",
        "out"
      ],
      [
        "he",
        "ll"
      ],
      [
        "p",
        "ower"
      ],
      [
        "mo",
        "ther"
      ],
      [
        "3",
        "3"
      ],
      [
        "c",
        "er"
      ],
      [
        "are",
        "a"
      ],
      [
        "com",
        "es"
      ],
      [
        "ph",
        "r"
      ],
      [
        "common",
        "ly"
      ],
      [
        "gr",
        "oup"
      ],
      [
        "r",
        "ap"
      ],
      [
        "th",
        "ough"
      ],
      [
        "com",
        "pu"
      ],
      [
        "ho",
        "le"
      ],
      [
        "compu",
        "ter"
      ],
      [
        "..",
        ".."
      ],
      [
        "n",
        "ing"
      ],
      [
        "ad",
        "j"
      ],
      [
        "o",
        "c"
      ],
      [
        "m",
        "et"
      ],
      [
        "b",
        "ro"
      ],
      [
        "w",
        "al"
      ],
      [
        "e",
        "y"
      ],
      [
        "ur",
        "ing"
      ],
      [
        "ion",
        "s"
      ],
      [
        "t",
        "ed"
      ],
      [
        "v",
        "ar"
      ],
      [
        "ball",
        "s"
      ],
      [
        "b",
        "in"
      ],
      [
        "s",
        "up"
      ],
      [
        "w",
        "ar"
      ],
      [
        "l",
        "ing"
      ],
      [
        "ent",
        "s"
      ],
      [
        "mak",
        "es"
      ],
      [
        "e",
        "z"
      ],
      [
        "way",
        "s"
      ],
      [
        "pop",
        "ular"
      ],
      [
        "e",
        "k"
      ],
      [
        "ic",
        "s"
      ],
      [
        "me",
        "m"
      ],
      [
        "s",
        "ide"
      ],
      [
        "we",
        "ar"
      ],
      [
        "jo",
        "b"
      ],
      [
        "p",
        "y"
      ],
      [
        "ne",
        "ed"
      ],
      [
        "m",
        "er"
      ],
      [
        "il",
        "ar"
      ],
      [
        "pro",
        "du"
      ],
      [
        "ou",
        "se"
      ],
      [
        "re",
        "e"
      ],
      [
        "ard",
        "s"
      ],
      [
        "bl",
        "ow"
      ],
      [
        "dir",
        "ty"
      ],
      [
        "f",
        "ing"
      ],
      [
        "m",
        "oney"
      ],
      [
        "wh",
        "ore"
      ],
      [
        "ch",
        "il"
      ],
      [
        "e",
        "ar"
      ],
      [
        "on",
        "t"
      ],
      [
        "re",
        "ad"
      ],
      [
        "fir",
        "st"
      ],
      [
        "y",
        "ing"
      ],
      [
        "l",
        "ly"
      ],
      [
        "thr",
        "ough"
      ],
      [
        "mar",
        "i"
      ],
      [
        "ang",
        "e"
      ],
      [
        "c",
        "ap"
      ],
      [
        "p",
        "ur"
      ],
      [
        "hum",
        "an"
      ],
      [
        "t",
        "est"
      ],
      [
        "fe",
        "ct"
      ],
      [
        "ty",
        "pe"
      ],
      [
        "d",
        "if"
      ],
      [
        "cour",
        "se"
      ],
      [
        "b",
        "ar"
      ],
      [
        "ac",
        "ter"
      ],
      [
        "izz",
        "le"
      ],
      [
        "r",
        "ing"
      ],
      [
        "on",
        "s"
      ],
      [
        "m",
        "ast"
      ],
      [
        "n",
        "ow"
      ],
      [
        "phr",
        "ase"
      ],
      [
        "l",
        "ow"
      ],
      [
        "st",
        "re"
      ],
      [
        "ju",
        "ana"
      ],
      [
        "tho",
        "se"
      ],
      [
        "ation",
        "s"
      ],
      [
        "k",
        "ill"
      ],
      [
        "m",
        "id"
      ],
      [
        "ne",
        "ver"
      ],
      [
        "dr",
        "ug"
      ],
      [
        "sch",
        "ool"
      ],
      [
        "te",
        "m"
      ],
      [
        "iz",
        "ed"
      ],
      [
        "p",
        "ot"
      ],
      [
        "v",
        "ed"
      ],
      [
        "en",
        "gl"
      ],
      [
        "id",
        "iot"
      ],
      [
        "get",
        "ting"
      ],
      [
        "ob",
        "ject"
      ],
      [
        "n",
        "ight"
      ],
      [
        "ce",
        "pt"
      ],
      [
        "char",
        "acter"
      ],
      [
        "sim",
        "ilar"
      ],
      [
        "d",
        "umb"
      ],
      [
        "re",
        "g"
      ],
      [
        "ple",
        "as"
      ],
      [
        "h",
        "ome"
      ],
      [
        "j",
        "ack"
      ],
      [
        "m",
        "ing"
      ],
      [
        "en",
        "jo"
      ],
      [
        "re",
        "ct"
      ],
      [
        "at",
        "tr"
      ],
      [
        "us",
        "es"
      ],
      [
        "k",
        "ick"
      ],
      [
        "l",
        "and"
      ],
      [
        "ro",
        "ll"
      ],
      [
        "cr",
        "ap"
      ],
      [
        "bet",
        "ter"
      ],
      [
        "h",
        "al"
      ],
      [
        "sty",
        "le"
      ],
      [
        "mari",
        "juana"
      ],
      [
        "s",
        "ing"
      ],
      [
        "comple",
        "te"
      ],
      [
        "t",
        "a"
      ],
      [
        "l",
        "a"
      ],
      [
        "i",
        "k"
      ],
      [
        "i",
        "ke"
      ],
      [
        "m",
        "or"
      ],
      [
        "dr",
        "unk"
      ],
      [
        "b",
        "on"
      ],
      [
        "you",
        "n"
      ],
      [
        "f",
        "am"
      ],
      [
        "u",
        "de"
      ],
      [
        "ligh",
        "t"
      ],
      [
        "f",
        "ood"
      ],
      [
        "h",
        "it"
      ],
      [
        "at",
        "or"
      ],
      [
        "st",
        "a"
      ],
      [
        "mast",
        "urb"
      ],
      [
        "w",
        "w"
      ],
      [
        "pr",
        "es"
      ],
      [
        "p",
        "or"
      ],
      [
        "sh",
        "ould"
      ],
      [
        "im",
        "es"
      ],
      [
        "d",
        "uring"
      ],
      [
        "mon",
        "key"
      ],
      [
        "l",
        "ed"
      ],
      [
        "w",
        "ank"
      ],
      [
        "t",
        "it"
      ],
      [
        "st",
        "ar"
      ],
      [
        "be",
        "li"
      ],
      [
        "qu",
        "al"
      ],
      [
        "ast",
        "ic"
      ],
      [
        "de",
        "v"
      ],
      [
        "call",
        "ed"
      ],
      [
        "d",
        "en"
      ],
      [
        "g",
        "in"
      ],
      [
        "som",
        "et"
      ],
      [
        "h",
        "u"
      ],
      [
        "be",
        "at"
      ],
      [
        "!!",
        "!!"
      ],
      [
        "j",
        "ap"
      ],
      [
        "m",
        "il"
      ],
      [
        "n",
        "ice"
      ],
      [
        "pe",
        "ct"
      ],
      [
        "i",
        "ther"
      ],
      [
        "iv",
        "id"
      ],
      [
        "ll",
        "s"
      ],
      [
        "mal",
        "es"
      ],
      [
        "pie",
        "ce"
      ],
      [
        "s",
        "en"
      ],
      [
        "part",
        "ic"
      ],
      [
        "au",
        "gh"
      ],
      [
        "c",
        "ut"
      ],
      [
        "f",
        "t"
      ],
      [
        "r",
        "id"
      ],
      [
        "iz",
        "e"
      ],
      [
        "does",
        "n"
      ],
      [
        "tur",
        "n"
      ],
      [
        "s",
        "cre"
      ],
      [
        "inter",
        "net"
      ],
      [
        "m",
        "om"
      ],
      [
        "p",
        "ants"
      ],
      [
        "ent",
        "ly"
      ],
      [
        "m",
        "ed"
      ],
      [
        "m",
        "aster"
      ],
      [
        "ho",
        "l"
      ],
      [
        "sho",
        "le"
      ],
      [
        "sex",
        "y"
      ],
      [
        "no",
        "thing"
      ],
      [
        "c",
        "as"
      ],
      [
        "k",
        "ind"
      ],
      [
        "ind",
        "ivid"
      ],
      [
        "sk",
        "in"
      ],
      [
        "b",
        "ow"
      ],
      [
        "d",
        "ing"
      ],
      [
        "m",
        "s"
      ],
      [
        "an",
        "no"
      ],
      [
        "as",
        "shole"
      ],
      [
        "ir",
        "d"
      ],
      [
        "we",
        "ed"
      ],
      [
        "iv",
        "ed"
      ],
      [
        "play",
        "er"
      ],
      [
        "amer",
        "ican"
      ],
      [
        "d",
        "i"
      ],
      [
        "l",
        "ick"
      ],
      [
        "n",
        "in"
      ],
      [
        "s",
        "qu"
      ],
      [
        "d",
        "ar"
      ],
      [
        "p",
        "iss"
      ],
      [
        "re",
        "f"
      ],
      [
        "c",
        "u"
      ],
      [
        "e",
        "e"
      ],
      [
        "somet",
        "imes"
      ],
      [
        "individ",
        "ual"
      ],
      [
        "1",
        "9"
      ],
      [
        "d",
        "ou"
      ],
      [
        "li",
        "p"
      ],
      [
        "b",
        "it"
      ],
      [
        "fuck",
        "er"
      ],
      [
        "look",
        "s"
      ],
      [
        "l",
        "er"
      ],
      [
        "m",
        "is"
      ],
      [
        "m",
        "ain"
      ],
      [
        "gen",
        "ital"
      ],
      [
        "express",
        "ion"
      ],
      [
        "es",
        "pe"
      ],
      [
        "ac",
        "ul"
      ],
      [
        "po",
        "int"
      ],
      [
        "al",
        "s"
      ],
      [
        "al",
        "ways"
      ],
      [
        "am",
        "p"
      ],
      [
        "ag",
        "ain"
      ],
      [
        "go",
        "ing"
      ],
      [
        "b",
        "um"
      ],
      [
        "d",
        "le"
      ],
      [
        "e",
        "j"
      ],
      [
        "bo",
        "x"
      ],
      [
        "friend",
        "s"
      ],
      [
        "h",
        "ap"
      ],
      [
        "i",
        "or"
      ],
      [
        "s",
        "le"
      ],
      [
        "if",
        "ic"
      ],
      [
        "it",
        "ies"
      ],
      [
        "cr",
        "azy"
      ],
      [
        "do",
        "ing"
      ],
      [
        "vers",
        "ion"
      ],
      [
        "at",
        "ter"
      ],
      [
        "com",
        "bin"
      ],
      [
        "guy",
        "s"
      ],
      [
        "youn",
        "g"
      ],
      [
        "c",
        "ould"
      ],
      [
        "v",
        "ie"
      ],
      [
        "et",
        "to"
      ],
      [
        "mak",
        "ing"
      ],
      [
        "b",
        "ast"
      ],
      [
        "w",
        "ater"
      ],
      [
        "think",
        "s"
      ],
      [
        "spe",
        "c"
      ],
      [
        "e",
        "ither"
      ],
      [
        "f",
        "lo"
      ],
      [
        "p",
        "et"
      ],
      [
        "d",
        "or"
      ],
      [
        "l",
        "li"
      ],
      [
        "in",
        "te"
      ],
      [
        "be",
        "er"
      ],
      [
        "ci",
        "ally"
      ],
      [
        "g",
        "ar"
      ],
      [
        "t",
        "end"
      ],
      [
        "v",
        "is"
      ],
      [
        "am",
        "oun"
      ],
      [
        "gh",
        "etto"
      ],
      [
        "m",
        "ess"
      ],
      [
        "cl",
        "ass"
      ],
      [
        "gener",
        "ally"
      ],
      [
        "dam",
        "n"
      ],
      [
        "d",
        "s"
      ],
      [
        "f",
        "act"
      ],
      [
        "se",
        "t"
      ],
      [
        "per",
        "form"
      ],
      [
        "con",
        "f"
      ],
      [
        "br",
        "own"
      ],
      [
        "ins",
        "ult"
      ],
      [
        "defin",
        "ition"
      ],
      [
        "i",
        "er"
      ],
      [
        "p",
        "ort"
      ],
      [
        "bo",
        "ard"
      ],
      [
        "l",
        "ad"
      ],
      [
        "o",
        "s"
      ],
      [
        "aw",
        "es"
      ],
      [
        "b",
        "a"
      ],
      [
        "w",
        "ere"
      ],
      [
        "st",
        "em"
      ],
      [
        "be",
        "fore"
      ],
      [
        "gam",
        "es"
      ],
      [
        "n",
        "um"
      ],
      [
        "o",
        "g"
      ],
      [
        "s",
        "al"
      ],
      [
        "ro",
        "ss"
      ],
      [
        "ej",
        "acul"
      ],
      [
        "0",
        "r"
      ],
      [
        "inter",
        "course"
      ],
      [
        "l",
        "s"
      ],
      [
        "an",
        "e"
      ],
      [
        "ap",
        "pe"
      ],
      [
        "ang",
        "er"
      ],
      [
        "us",
        "tr"
      ],
      [
        "ak",
        "a"
      ],
      [
        "d",
        "ro"
      ],
      [
        "at",
        "ur"
      ],
      [
        "che",
        "ese"
      ],
      [
        "o",
        "h"
      ],
      [
        "ch",
        "in"
      ],
      [
        "f",
        "an"
      ],
      [
        "g",
        "ive"
      ],
      [
        "p",
        "ain"
      ],
      [
        "it",
        "ed"
      ],
      [
        "ac",
        "r"
      ],
      [
        "de",
        "ad"
      ],
      [
        "fu",
        "ll"
      ],
      [
        "engl",
        "ish"
      ],
      [
        "bo",
        "th"
      ],
      [
        "espe",
        "cially"
      ],
      [
        "nam",
        "ed"
      ],
      [
        "attr",
        "act"
      ],
      [
        "jap",
        "an"
      ],
      [
        "m",
        "ag"
      ],
      [
        "st",
        "ill"
      ],
      [
        "ch",
        "r"
      ],
      [
        "ow",
        "s"
      ],
      [
        "g",
        "un"
      ],
      [
        "fuck",
        "ed"
      ],
      [
        "swe",
        "et"
      ],
      [
        "inv",
        "ol"
      ],
      [
        "po",
        "l"
      ],
      [
        "app",
        "y"
      ],
      [
        "m",
        "ass"
      ],
      [
        "el",
        "se"
      ],
      [
        "every",
        "thing"
      ],
      [
        "i",
        "li"
      ],
      [
        "qu",
        "est"
      ],
      [
        "other",
        "s"
      ],
      [
        "bre",
        "ast"
      ],
      [
        "h",
        "ang"
      ],
      [
        "ex",
        "cl"
      ],
      [
        "mo",
        "ve"
      ],
      [
        "d",
        "one"
      ],
      [
        "b",
        "or"
      ],
      [
        "look",
        "ing"
      ],
      [
        "e",
        "ye"
      ],
      [
        "in",
        "cl"
      ],
      [
        "awes",
        "ome"
      ],
      [
        "d",
        "id"
      ],
      [
        "f",
        "ar"
      ],
      [
        "ib",
        "ly"
      ],
      [
        "d",
        "om"
      ],
      [
        "j",
        "er"
      ],
      [
        "m",
        "ust"
      ],
      [
        "p",
        "ass"
      ],
      [
        "p",
        "unk"
      ],
      [
        "l",
        "ack"
      ],
      [
        "at",
        "s"
      ],
      [
        "as",
        "ty"
      ],
      [
        "w",
        "a"
      ],
      [
        "or",
        "al"
      ],
      [
        "at",
        "ory"
      ],
      [
        "as",
        "y"
      ],
      [
        "un",
        "g"
      ],
      [
        "b",
        "ed"
      ],
      [
        "ing",
        "s"
      ],
      [
        "var",
        "i"
      ],
      [
        "h",
        "ad"
      ],
      [
        "k",
        "er"
      ],
      [
        "l",
        "in"
      ],
      [
        "un",
        "i"
      ],
      [
        "fun",
        "ny"
      ],
      [
        "k",
        "en"
      ],
      [
        "m",
        "ot"
      ],
      [
        "li",
        "m"
      ],
      [
        "lo",
        "ad"
      ],
      [
        "sk",
        "ill"
      ],
      [
        "op",
        "pos"
      ],
      [
        "sit",
        "u"
      ],
      [
        "stre",
        "et"
      ],
      [
        "str",
        "ong"
      ],
      [
        "c",
        "unt"
      ],
      [
        "st",
        "uff"
      ],
      [
        "id",
        "er"
      ],
      [
        "ne",
        "ck"
      ],
      [
        "h",
        "ip"
      ],
      [
        "h",
        "ouse"
      ],
      [
        "ter",
        "n"
      ],
      [
        "hal",
        "f"
      ],
      [
        "f",
        "ind"
      ],
      [
        "m",
        "m"
      ],
      [
        "se",
        "en"
      ],
      [
        "id",
        "ent"
      ],
      [
        "lo",
        "ck"
      ],
      [
        "act",
        "ually"
      ],
      [
        "tak",
        "ing"
      ],
      [
        "the",
        "se"
      ],
      [
        "to",
        "ile"
      ],
      [
        "to",
        "wn"
      ],
      [
        "fr",
        "ont"
      ],
      [
        "t",
        "ight"
      ],
      [
        "sh",
        "ot"
      ],
      [
        "sh",
        "ip"
      ],
      [
        "sy",
        "stem"
      ],
      [
        "poo",
        "p"
      ],
      [
        "bast",
        "ard"
      ],
      [
        "w",
        "an"
      ],
      [
        "or",
        "s"
      ],
      [
        "ke",
        "ep"
      ],
      [
        "me",
        "at"
      ],
      [
        "j",
        "a"
      ],
      [
        "v",
        "al"
      ],
      [
        "de",
        "l"
      ],
      [
        "te",
        "ch"
      ],
      [
        "du",
        "e"
      ],
      [
        "k",
        "no"
      ],
      [
        "th",
        "a"
      ],
      [
        "es",
        "h"
      ],
      [
        "any",
        "one"
      ],
      [
        "tal",
        "k"
      ],
      [
        "n",
        "on"
      ],
      [
        "ex",
        "c"
      ],
      [
        "ci",
        "al"
      ],
      [
        "sub",
        "st"
      ],
      [
        "p",
        "lo"
      ],
      [
        "v",
        "o"
      ],
      [
        "de",
        "f"
      ],
      [
        "pl",
        "ac"
      ],
      [
        "act",
        "s"
      ],
      [
        "a",
        "im"
      ],
      [
        "b",
        "ud"
      ],
      [
        "f",
        "ish"
      ],
      [
        "n",
        "ick"
      ],
      [
        "ad",
        "ject"
      ],
      [
        "hap",
        "pen"
      ],
      [
        "f",
        "ire"
      ],
      [
        "h",
        "ind"
      ],
      [
        "y",
        "et"
      ],
      [
        "en",
        "ch"
      ],
      [
        "mem",
        "ber"
      ],
      [
        "b",
        "at"
      ],
      [
        "f",
        "ast"
      ],
      [
        "sp",
        "ort"
      ],
      [
        "mar",
        "k"
      ],
      [
        "bre",
        "ak"
      ],
      [
        "every",
        "one"
      ],
      [
        "toile",
        "t"
      ],
      [
        "der",
        "ived"
      ],
      [
        "son",
        "g"
      ],
      [
        "coun",
        "ter"
      ],
      [
        "japan",
        "ese"
      ],
      [
        "!",
        "'"
      ],
      [
        "l",
        "augh"
      ],
      [
        "v",
        "en"
      ],
      [
        "ou",
        "d"
      ],
      [
        "go",
        "es"
      ],
      [
        "spe",
        "ak"
      ],
      [
        "fo",
        "llow"
      ],
      [
        "c",
        "ir"
      ],
      [
        "lo",
        "g"
      ],
      [
        "bl",
        "ing"
      ],
      [
        "adject",
        "ive"
      ],
      [
        "m",
        "ind"
      ],
      [
        "s",
        "ack"
      ],
      [
        "al",
        "co"
      ],
      [
        "li",
        "ve"
      ],
      [
        "acr",
        "onym"
      ],
      [
        "i",
        "i"
      ],
      [
        "p",
        "on"
      ],
      [
        "as",
        "k"
      ],
      [
        "us",
        "s"
      ],
      [
        "he",
        "l"
      ],
      [
        "pl",
        "es"
      ],
      [
        "pr",
        "on"
      ],
      [
        "a",
        "a"
      ],
      [
        "m",
        "ad"
      ],
      [
        "ic",
        "le"
      ],
      [
        "ho",
        "ld"
      ],
      [
        "par",
        "ty"
      ],
      [
        "partic",
        "ular"
      ],
      [
        "n",
        "ip"
      ],
      [
        "w",
        "atch"
      ],
      [
        "il",
        "ity"
      ],
      [
        "gr",
        "am"
      ],
      [
        "bab",
        "y"
      ],
      [
        "f",
        "oot"
      ],
      [
        "w",
        "in"
      ],
      [
        "in",
        "ess"
      ],
      [
        "ou",
        "ch"
      ],
      [
        "e",
        "ach"
      ],
      [
        "p",
        "ub"
      ],
      [
        "s",
        "of"
      ],
      [
        "z",
        "e"
      ],
      [
        "ab",
        "o"
      ],
      [
        "ict",
        "ion"
      ],
      [
        "syn",
        "onym"
      ],
      [
        "h",
        "am"
      ],
      [
        "ic",
        "a"
      ],
      [
        "us",
        "h"
      ],
      [
        "po",
        "st"
      ],
      [
        "ar",
        "se"
      ],
      [
        "ent",
        "ion"
      ],
      [
        "bl",
        "ood"
      ],
      [
        "alco",
        "hol"
      ],
      [
        "s",
        "il"
      ],
      [
        "e",
        "le"
      ],
      [
        "v",
        "ide"
      ],
      [
        "or",
        "der"
      ],
      [
        "oo",
        "se"
      ],
      [
        "am",
        "a"
      ],
      [
        "ter",
        "s"
      ],
      [
        "anno",
        "ying"
      ],
      [
        "1",
        "0"
      ],
      [
        "f",
        "ool"
      ],
      [
        "et",
        "y"
      ],
      [
        "tr",
        "a"
      ],
      [
        "lo",
        "ves"
      ],
      [
        "ty",
        "p"
      ],
      [
        "suck",
        "s"
      ],
      [
        "le",
        "ft"
      ],
      [
        "ag",
        "es"
      ],
      [
        "man",
        "ner"
      ],
      [
        "act",
        "iv"
      ],
      [
        "dif",
        "fer"
      ],
      [
        "r",
        "ub"
      ],
      [
        "st",
        "art"
      ],
      [
        "ot",
        "ch"
      ],
      [
        "ist",
        "s"
      ],
      [
        "fl",
        "u"
      ],
      [
        "st",
        "ud"
      ],
      [
        "li",
        "ves"
      ],
      [
        "tim",
        "es"
      ],
      [
        "great",
        "est"
      ],
      [
        "smo",
        "ke"
      ],
      [
        "l",
        "ang"
      ],
      [
        "dr",
        "ag"
      ],
      [
        "res",
        "em"
      ],
      [
        "descr",
        "ib"
      ],
      [
        "l",
        "u"
      ],
      [
        "p",
        "in"
      ],
      [
        "h",
        "ar"
      ],
      [
        "b",
        "an"
      ],
      [
        "o",
        "pen"
      ],
      [
        "en",
        "ough"
      ],
      [
        "ul",
        "let"
      ],
      [
        "no",
        "se"
      ],
      [
        "col",
        "le"
      ],
      [
        "33",
        "7"
      ],
      [
        "a",
        "fr"
      ],
      [
        "c",
        "at"
      ],
      [
        "or",
        "d"
      ],
      [
        "ev",
        "il"
      ],
      [
        "fing",
        "er"
      ],
      [
        "f",
        "a"
      ],
      [
        "w",
        "on"
      ],
      [
        "pleas",
        "ure"
      ],
      [
        "f",
        "il"
      ],
      [
        "s",
        "top"
      ],
      [
        "ins",
        "er"
      ],
      [
        "tak",
        "es"
      ],
      [
        "giv",
        "en"
      ],
      [
        "giv",
        "ing"
      ],
      [
        "s",
        "ign"
      ],
      [
        "v",
        "ir"
      ],
      [
        "met",
        "al"
      ],
      [
        "inte",
        "lli"
      ],
      [
        "f",
        "ur"
      ],
      [
        "t",
        "re"
      ],
      [
        "as",
        "ian"
      ],
      [
        "retard",
        "ed"
      ],
      [
        "lang",
        "u"
      ],
      [
        "f",
        "ight"
      ],
      [
        "be",
        "a"
      ],
      [
        "po",
        "or"
      ],
      [
        "pro",
        "per"
      ],
      [
        "2",
        "0"
      ],
      [
        "c",
        "ame"
      ],
      [
        "l",
        "ast"
      ],
      [
        "as",
        "on"
      ],
      [
        "be",
        "hind"
      ],
      [
        "comm",
        "un"
      ],
      [
        "c",
        "ity"
      ],
      [
        "su",
        "re"
      ],
      [
        "pu",
        "bl"
      ],
      [
        "enjo",
        "ys"
      ],
      [
        "k",
        "in"
      ],
      [
        "m",
        "iss"
      ],
      [
        "n",
        "ig"
      ],
      [
        "on",
        "d"
      ],
      [
        "le",
        "ad"
      ],
      [
        "end",
        "s"
      ],
      [
        "don",
        "t"
      ],
      [
        "sen",
        "se"
      ],
      [
        "sle",
        "ep"
      ],
      [
        "r",
        "ad"
      ],
      [
        "te",
        "am"
      ],
      [
        "try",
        "ing"
      ],
      [
        "ref",
        "ers"
      ],
      [
        "d",
        "ig"
      ],
      [
        "y",
        "a"
      ],
      [
        "on",
        "ce"
      ],
      [
        "ic",
        "les"
      ],
      [
        "org",
        "an"
      ],
      [
        "p",
        "orn"
      ],
      [
        "w",
        "it"
      ],
      [
        "at",
        "tem"
      ],
      [
        "af",
        "f"
      ],
      [
        "b",
        "i"
      ],
      [
        "d",
        "an"
      ],
      [
        "ic",
        "ious"
      ],
      [
        "le",
        "y"
      ],
      [
        "say",
        "s"
      ],
      [
        "s",
        "pr"
      ],
      [
        "part",
        "ner"
      ],
      [
        "hu",
        "ge"
      ],
      [
        "combin",
        "ation"
      ],
      [
        "a",
        "way"
      ],
      [
        "pl",
        "an"
      ],
      [
        "situ",
        "ation"
      ],
      [
        "wan",
        "na"
      ],
      [
        "b",
        "om"
      ],
      [
        "f",
        "ac"
      ],
      [
        "mo",
        "vie"
      ],
      [
        "play",
        "ing"
      ],
      [
        "n",
        "asty"
      ],
      [
        "w",
        "ind"
      ],
      [
        "ro",
        "g"
      ],
      [
        "ab",
        "bre"
      ],
      [
        "tr",
        "ue"
      ],
      [
        "sl",
        "ap"
      ],
      [
        "unt",
        "il"
      ],
      [
        "oppos",
        "ite"
      ],
      [
        "b",
        "al"
      ],
      [
        "on",
        "line"
      ],
      [
        "se",
        "ver"
      ],
      [
        "co",
        "ver"
      ],
      [
        "breast",
        "s"
      ],
      [
        "langu",
        "age"
      ],
      [
        "t",
        "un"
      ],
      [
        "w",
        "er"
      ],
      [
        "!!",
        "!"
      ],
      [
        "num",
        "ber"
      ],
      [
        "dro",
        "p"
      ],
      [
        ")",
        ","
      ],
      [
        "m",
        "ix"
      ],
      [
        "ro",
        "l"
      ],
      [
        "wor",
        "th"
      ],
      [
        "cle",
        "an"
      ],
      [
        "abo",
        "ve"
      ],
      [
        "k",
        "o"
      ],
      [
        "w",
        "ards"
      ],
      [
        "en",
        "ter"
      ],
      [
        "ot",
        "e"
      ],
      [
        "chil",
        "d"
      ],
      [
        "excl",
        "am"
      ],
      [
        "se",
        "cond"
      ],
      [
        "some",
        "body"
      ],
      [
        "a",
        "x"
      ],
      [
        "h",
        "ack"
      ],
      [
        "dr",
        "ess"
      ],
      [
        "hair",
        "y"
      ],
      [
        "vi",
        "ation"
      ],
      [
        "nut",
        "s"
      ],
      [
        "g",
        "n"
      ],
      [
        "r",
        "and"
      ],
      [
        "wh",
        "e"
      ],
      [
        "ut",
        "ter"
      ],
      [
        "so",
        "l"
      ],
      [
        "he",
        "av"
      ],
      [
        "s",
        "ent"
      ],
      [
        "as",
        "m"
      ],
      [
        "st",
        "ant"
      ],
      [
        "et",
        "ing"
      ],
      [
        "c",
        "ing"
      ],
      [
        "to",
        "t"
      ],
      [
        "to",
        "ge"
      ],
      [
        "bo",
        "ys"
      ],
      [
        "cons",
        "ider"
      ],
      [
        "again",
        "st"
      ],
      [
        "p",
        "ack"
      ],
      [
        "u",
        "ce"
      ],
      [
        "bl",
        "ue"
      ],
      [
        "--",
        "--"
      ],
      [
        "kid",
        "s"
      ],
      [
        "amoun",
        "t"
      ],
      [
        "d",
        "ance"
      ],
      [
        "h",
        "oo"
      ],
      [
        "l",
        "t"
      ],
      [
        "r",
        "ound"
      ],
      [
        "ate",
        "ly"
      ],
      [
        "pos",
        "ition"
      ],
      [
        "cer",
        "tain"
      ],
      [
        "attract",
        "ive"
      ],
      [
        "d",
        "ire"
      ],
      [
        "t",
        "ion"
      ],
      [
        "tr",
        "u"
      ],
      [
        "bl",
        "es"
      ],
      [
        "pro",
        "cess"
      ],
      [
        "sel",
        "ves"
      ],
      [
        "f",
        "ly"
      ],
      [
        "gr",
        "ap"
      ],
      [
        "gr",
        "ound"
      ],
      [
        "fre",
        "ak"
      ],
      [
        "differ",
        "ent"
      ],
      [
        "g",
        "ing"
      ],
      [
        "m",
        "ult"
      ],
      [
        "p",
        "unch"
      ],
      [
        "it",
        "ing"
      ],
      [
        "ve",
        "l"
      ],
      [
        "iv",
        "es"
      ],
      [
        "tain",
        "ing"
      ],
      [
        "toge",
        "ther"
      ],
      [
        "d",
        "ist"
      ],
      [
        "e",
        "ating"
      ],
      [
        "l",
        "ist"
      ],
      [
        "p",
        "ink"
      ],
      [
        "r",
        "r"
      ],
      [
        "s",
        "po"
      ],
      [
        "t",
        "in"
      ],
      [
        "pr",
        "of"
      ],
      [
        "if",
        "f"
      ],
      [
        "der",
        "og"
      ],
      [
        "ins",
        "ide"
      ],
      [
        "du",
        "de"
      ],
      [
        "scr",
        "ot"
      ],
      [
        "8",
        "0"
      ],
      [
        "d",
        "ad"
      ],
      [
        "d",
        "ie"
      ],
      [
        "p",
        "ig"
      ],
      [
        "r",
        "ac"
      ],
      [
        "r",
        "est"
      ],
      [
        "ll",
        "ed"
      ],
      [
        "up",
        "on"
      ],
      [
        "fag",
        "got"
      ],
      [
        "s",
        "to"
      ],
      [
        "w",
        "ise"
      ],
      [
        "pre",
        "t"
      ],
      [
        "fre",
        "e"
      ],
      [
        "anim",
        "al"
      ],
      [
        "b",
        "ing"
      ],
      [
        "c",
        "ig"
      ],
      [
        "m",
        "c"
      ],
      [
        "p",
        "an"
      ],
      [
        "on",
        "ic"
      ],
      [
        "for",
        "ce"
      ],
      [
        "fuck",
        "in"
      ],
      [
        "spe",
        "cial"
      ],
      [
        "vi",
        "ol"
      ],
      [
        "comp",
        "any"
      ],
      [
        "qual",
        "ity"
      ],
      [
        "f",
        "all"
      ],
      [
        "r",
        "u"
      ],
      [
        "se",
        "men"
      ],
      [
        "de",
        "ath"
      ],
      [
        "ap",
        "pro"
      ],
      [
        "pr",
        "im"
      ],
      [
        "qu",
        "ite"
      ],
      [
        "1",
        "337"
      ],
      [
        "b",
        "ian"
      ],
      [
        "d",
        "il"
      ],
      [
        "g",
        "oo"
      ],
      [
        "v",
        "ol"
      ],
      [
        "ot",
        "t"
      ],
      [
        "ab",
        "ility"
      ],
      [
        "ce",
        "ed"
      ],
      [
        "ph",
        "ys"
      ],
      [
        "cre",
        "ature"
      ],
      [
        "spe",
        "lling"
      ],
      [
        "gener",
        "al"
      ],
      [
        "b",
        "ang"
      ],
      [
        "g",
        "ed"
      ],
      [
        "j",
        "izz"
      ],
      [
        "p",
        "i"
      ],
      [
        "ious",
        "ly"
      ],
      [
        "exclam",
        "ation"
      ],
      [
        "k",
        "a"
      ],
      [
        "s",
        "ou"
      ],
      [
        "li",
        "es"
      ],
      [
        "ex",
        "cept"
      ],
      [
        "mo",
        "b"
      ],
      [
        "cr",
        "ed"
      ],
      [
        "pl",
        "ain"
      ],
      [
        "br",
        "ain"
      ],
      [
        "them",
        "selves"
      ],
      [
        "ey",
        "es"
      ],
      [
        "chil",
        "dr"
      ],
      [
        "rand",
        "om"
      ],
      [
        "s",
        "outh"
      ],
      [
        "t",
        "its"
      ],
      [
        "lo",
        "c"
      ],
      [
        "bu",
        "ll"
      ],
      [
        "refer",
        "ence"
      ],
      [
        "drug",
        "s"
      ],
      [
        "h",
        "ook"
      ],
      [
        "s",
        "in"
      ],
      [
        "w",
        "ang"
      ],
      [
        "w",
        "ood"
      ],
      [
        "al",
        "tern"
      ],
      [
        "ir",
        "ed"
      ],
      [
        "lo",
        "ser"
      ],
      [
        "most",
        "ly"
      ],
      [
        "bus",
        "h"
      ],
      [
        "e",
        "qu"
      ],
      [
        "h",
        "ood"
      ],
      [
        "r",
        "im"
      ],
      [
        "ter",
        "r"
      ],
      [
        "str",
        "ike"
      ],
      [
        "l",
        "ame"
      ],
      [
        "o",
        "d"
      ],
      [
        "th",
        "us"
      ],
      [
        "ar",
        "ch"
      ],
      [
        "qu",
        "ick"
      ],
      [
        "sp",
        "ace"
      ],
      [
        "az",
        "z"
      ],
      [
        "fre",
        "qu"
      ],
      [
        "smo",
        "king"
      ],
      [
        "leg",
        "s"
      ],
      [
        "mid",
        "dle"
      ],
      [
        "dar",
        "k"
      ],
      [
        "s",
        "imp"
      ],
      [
        "ab",
        "ly"
      ],
      [
        "f",
        "ant"
      ],
      [
        "m",
        "atter"
      ],
      [
        "iv",
        "ing"
      ],
      [
        "ev",
        "ent"
      ],
      [
        "ye",
        "ar"
      ],
      [
        "want",
        "s"
      ],
      [
        "wear",
        "ing"
      ],
      [
        "i",
        "est"
      ],
      [
        "k",
        "ed"
      ],
      [
        "p",
        "ick"
      ],
      [
        "s",
        "and"
      ],
      [
        "be",
        "come"
      ],
      [
        "ck",
        "s"
      ],
      [
        "ho",
        "e"
      ],
      [
        "childr",
        "en"
      ],
      [
        "c",
        "ore"
      ],
      [
        "c",
        "ult"
      ],
      [
        "v",
        "ic"
      ],
      [
        "re",
        "ason"
      ],
      [
        "bur",
        "n"
      ],
      [
        "genital",
        "ia"
      ],
      [
        "s",
        "lo"
      ],
      [
        "ul",
        "ous"
      ],
      [
        "cl",
        "ub"
      ],
      [
        "urb",
        "an"
      ],
      [
        "a",
        "pe"
      ],
      [
        "to",
        "tal"
      ],
      [
        "ion",
        "al"
      ],
      [
        "li",
        "ps"
      ],
      [
        "te",
        "en"
      ],
      [
        "end",
        "er"
      ],
      [
        "vide",
        "o"
      ],
      [
        "l",
        "ay"
      ],
      [
        "m",
        "ic"
      ],
      [
        "as",
        "soci"
      ],
      [
        "am",
        "ong"
      ],
      [
        "et",
        "er"
      ],
      [
        "ph",
        "one"
      ],
      [
        "av",
        "or"
      ],
      [
        "wr",
        "ong"
      ],
      [
        "gang",
        "sta"
      ],
      [
        "feel",
        "ing"
      ],
      [
        "b",
        "ird"
      ],
      [
        "g",
        "ent"
      ],
      [
        "h",
        "n"
      ],
      [
        "j",
        "am"
      ],
      [
        "m",
        "ullet"
      ],
      [
        "s",
        "ar"
      ],
      [
        "if",
        "ul"
      ],
      [
        "pro",
        "gram"
      ],
      [
        "cor",
        "rect"
      ],
      [
        "oc",
        "cur"
      ],
      [
        "publ",
        "ic"
      ],
      [
        "tot",
        "ally"
      ],
      [
        "a",
        "ustr"
      ],
      [
        "c",
        "ow"
      ],
      [
        "c",
        "ant"
      ],
      [
        "th",
        "ree"
      ],
      [
        "is",
        "ter"
      ],
      [
        "ent",
        "ed"
      ],
      [
        "tr",
        "ash"
      ],
      [
        "nor",
        "m"
      ],
      [
        "produ",
        "ct"
      ],
      [
        "scre",
        "w"
      ],
      [
        "c",
        "are"
      ],
      [
        "f",
        "ill"
      ],
      [
        "ar",
        "r"
      ],
      [
        "us",
        "age"
      ],
      [
        "ne",
        "g"
      ],
      [
        "res",
        "pect"
      ],
      [
        "tal",
        "king"
      ],
      [
        "soci",
        "al"
      ],
      [
        "h",
        "appy"
      ],
      [
        "s",
        "ort"
      ],
      [
        "s",
        "ize"
      ],
      [
        "et",
        "s"
      ],
      [
        "per",
        "s"
      ],
      [
        "co",
        "de"
      ],
      [
        "bo",
        "b"
      ],
      [
        "spe",
        "ed"
      ],
      [
        "know",
        "s"
      ],
      [
        "thr",
        "ow"
      ],
      [
        "clo",
        "se"
      ],
      [
        "g",
        "as"
      ],
      [
        "k",
        "y"
      ],
      [
        "all",
        "ow"
      ],
      [
        "cre",
        "ated"
      ],
      [
        "av",
        "es"
      ],
      [
        "gre",
        "en"
      ],
      [
        "ste",
        "al"
      ],
      [
        "appe",
        "ar"
      ],
      [
        "abbre",
        "viation"
      ],
      [
        "e",
        "th"
      ],
      [
        "i",
        "ans"
      ],
      [
        "l",
        "oud"
      ],
      [
        "re",
        "li"
      ],
      [
        "sh",
        "ir"
      ],
      [
        "ex",
        "per"
      ],
      [
        "we",
        "b"
      ],
      [
        "can",
        "ad"
      ],
      [
        "ef",
        "fect"
      ],
      [
        "poss",
        "ible"
      ],
      [
        "austr",
        "al"
      ],
      [
        "l",
        "aw"
      ],
      [
        "s",
        "car"
      ],
      [
        "in",
        "o"
      ],
      [
        "to",
        "ol"
      ],
      [
        "oo",
        "oo"
      ],
      [
        "fr",
        "u"
      ],
      [
        "me",
        "x"
      ],
      [
        "b",
        "ie"
      ],
      [
        "b",
        "ook"
      ],
      [
        "g",
        "i"
      ],
      [
        "g",
        "an"
      ],
      [
        "al",
        "ot"
      ],
      [
        "who",
        "le"
      ],
      [
        "tr",
        "ies"
      ],
      [
        "po",
        "se"
      ],
      [
        "af",
        "t"
      ],
      [
        "ju",
        "ice"
      ],
      [
        "scrot",
        "um"
      ],
      [
        "b",
        "uck"
      ],
      [
        "c",
        "s"
      ],
      [
        "k",
        "r"
      ],
      [
        "se",
        "cre"
      ],
      [
        "be",
        "ast"
      ],
      [
        "who",
        "se"
      ],
      [
        "fe",
        "males"
      ],
      [
        "own",
        "ed"
      ],
      [
        "col",
        "or"
      ],
      [
        "ra",
        "ther"
      ],
      [
        "cont",
        "rol"
      ],
      [
        "bea",
        "ut"
      ],
      [
        ",",
        "'"
      ],
      [
        "y",
        "es"
      ],
      [
        "co",
        "p"
      ],
      [
        "can",
        "not"
      ],
      [
        "end",
        "ing"
      ],
      [
        "her",
        "e"
      ],
      [
        "br",
        "it"
      ],
      [
        "str",
        "a"
      ],
      [
        "him",
        "self"
      ],
      [
        "giv",
        "es"
      ],
      [
        "quest",
        "ion"
      ],
      [
        "mult",
        "i"
      ],
      [
        "h",
        "at"
      ],
      [
        "i",
        "ent"
      ],
      [
        "m",
        "it"
      ],
      [
        "v",
        "an"
      ],
      [
        "at",
        "o"
      ],
      [
        "is",
        "ed"
      ],
      [
        "re",
        "le"
      ],
      [
        "ex",
        "am"
      ],
      [
        "b",
        "ust"
      ],
      [
        "h",
        "on"
      ],
      [
        "h",
        "our"
      ],
      [
        "s",
        "at"
      ],
      [
        "le",
        "ave"
      ],
      [
        "oo",
        "p"
      ],
      [
        "sh",
        "ar"
      ],
      [
        "ul",
        "tim"
      ],
      [
        "com",
        "ing"
      ],
      [
        "do",
        "gg"
      ],
      [
        "el",
        "s"
      ],
      [
        "chick",
        "en"
      ],
      [
        "ear",
        "th"
      ],
      [
        "test",
        "icles"
      ],
      [
        "derog",
        "atory"
      ],
      [
        "b",
        "lock"
      ],
      [
        "r",
        "ip"
      ],
      [
        "st",
        "ink"
      ],
      [
        "be",
        "ef"
      ],
      [
        "ther",
        "n"
      ],
      [
        "ul",
        "ation"
      ],
      [
        "ex",
        "cess"
      ],
      [
        "ass",
        "es"
      ],
      [
        "ain",
        "e"
      ],
      [
        "eat",
        "s"
      ],
      [
        "f",
        "it"
      ],
      [
        "l",
        "ate"
      ],
      [
        "p",
        "ast"
      ],
      [
        "s",
        "um"
      ],
      [
        "be",
        "y"
      ],
      [
        "ut",
        "ion"
      ],
      [
        "su",
        "c"
      ],
      [
        "ste",
        "ad"
      ],
      [
        "d",
        "re"
      ],
      [
        "h",
        "un"
      ],
      [
        "am",
        "az"
      ],
      [
        "ir",
        "c"
      ],
      [
        "ce",
        "ll"
      ],
      [
        "person",
        "s"
      ],
      [
        "pu",
        "ll"
      ],
      [
        "swe",
        "at"
      ],
      [
        "beli",
        "ev"
      ],
      [
        "particular",
        "ly"
      ],
      [
        "b",
        "ub"
      ],
      [
        "e",
        "ks"
      ],
      [
        "f",
        "ine"
      ],
      [
        "g",
        "est"
      ],
      [
        "o",
        "id"
      ],
      [
        "wi",
        "de"
      ],
      [
        "ve",
        "h"
      ],
      [
        "te",
        "ll"
      ],
      [
        "but",
        "ter"
      ],
      [
        "tur",
        "d"
      ],
      [
        "bu",
        "il"
      ],
      [
        "afr",
        "ican"
      ],
      [
        "o",
        "k"
      ],
      [
        "s",
        "ess"
      ],
      [
        "s",
        "ive"
      ],
      [
        "ar",
        "ily"
      ],
      [
        "it",
        "ive"
      ],
      [
        "lo",
        "gy"
      ],
      [
        "con",
        "tr"
      ],
      [
        "mu",
        "ff"
      ],
      [
        "cor",
        "n"
      ],
      [
        "refer",
        "ring"
      ],
      [
        "hor",
        "r"
      ],
      [
        "conf",
        "used"
      ],
      [
        "consider",
        "ed"
      ],
      [
        "norm",
        "ally"
      ],
      [
        "c",
        "up"
      ],
      [
        "f",
        "ake"
      ],
      [
        "s",
        "pl"
      ],
      [
        "t",
        "v"
      ],
      [
        "u",
        "c"
      ],
      [
        "wh",
        "ate"
      ],
      [
        "li",
        "qu"
      ],
      [
        "per",
        "io"
      ],
      [
        "de",
        "al"
      ],
      [
        "ex",
        "ist"
      ],
      [
        "sp",
        "an"
      ],
      [
        "coun",
        "try"
      ],
      [
        "org",
        "asm"
      ],
      [
        "b",
        "un"
      ],
      [
        "g",
        "le"
      ],
      [
        "p",
        "ay"
      ],
      [
        "v",
        "in"
      ],
      [
        "en",
        "ed"
      ],
      [
        "your",
        "self"
      ],
      [
        "end",
        "ed"
      ],
      [
        "les",
        "bian"
      ],
      [
        "cho",
        "de"
      ],
      [
        "pret",
        "ty"
      ],
      [
        "b",
        "ers"
      ],
      [
        "g",
        "on"
      ],
      [
        "i",
        "th"
      ],
      [
        "w",
        "ard"
      ],
      [
        "tr",
        "an"
      ],
      [
        "sex",
        "ually"
      ],
      [
        "cur",
        "r"
      ],
      [
        "pron",
        "oun"
      ],
      [
        "cig",
        "ar"
      ],
      [
        "w",
        "ish"
      ],
      [
        "ch",
        "a"
      ],
      [
        "am",
        "s"
      ],
      [
        "per",
        "fect"
      ],
      [
        "fr",
        "esh"
      ],
      [
        "sl",
        "ow"
      ],
      [
        "nor",
        "mal"
      ],
      [
        "fam",
        "ily"
      ],
      [
        "2",
        "00"
      ],
      [
        "al",
        "most"
      ],
      [
        "as",
        "te"
      ],
      [
        "ic",
        "ation"
      ],
      [
        "st",
        "on"
      ],
      [
        "et",
        "te"
      ],
      [
        "ver",
        "age"
      ],
      [
        "f",
        "unk"
      ],
      [
        "n",
        "ed"
      ],
      [
        "n",
        "ation"
      ],
      [
        "s",
        "per"
      ],
      [
        "li",
        "ving"
      ],
      [
        "pe",
        "e"
      ],
      [
        "tr",
        "ip"
      ],
      [
        "con",
        "stant"
      ],
      [
        "girl",
        "friend"
      ],
      [
        "jo",
        "hn"
      ],
      [
        "activ",
        "ity"
      ],
      [
        "d",
        "ump"
      ],
      [
        "h",
        "ate"
      ],
      [
        "l",
        "at"
      ],
      [
        "p",
        "wn"
      ],
      [
        "x",
        "0r"
      ],
      [
        "ic",
        "ated"
      ],
      [
        "that",
        "s"
      ],
      [
        "ur",
        "al"
      ],
      [
        "fr",
        "ench"
      ],
      [
        "cr",
        "otch"
      ],
      [
        "co",
        "c"
      ],
      [
        "dr",
        "ive"
      ],
      [
        "che",
        "ap"
      ],
      [
        "bot",
        "tom"
      ],
      [
        "fam",
        "ous"
      ],
      [
        "nick",
        "name"
      ],
      [
        "nig",
        "ga"
      ],
      [
        "whate",
        "ver"
      ],
      [
        "r",
        "ich"
      ],
      [
        "s",
        "un"
      ],
      [
        "in",
        "ch"
      ],
      [
        "al",
        "e"
      ],
      [
        "is",
        "n"
      ],
      [
        "id",
        "es"
      ],
      [
        "tr",
        "ick"
      ],
      [
        "inter",
        "est"
      ],
      [
        "ser",
        "ies"
      ],
      [
        "poss",
        "ibly"
      ],
      [
        "drag",
        "on"
      ],
      [
        "dire",
        "ct"
      ],
      [
        "b",
        "iz"
      ],
      [
        "d",
        "est"
      ],
      [
        "f",
        "ash"
      ],
      [
        "i",
        "en"
      ],
      [
        "r",
        "ot"
      ],
      [
        "re",
        "t"
      ],
      [
        "ck",
        "er"
      ],
      [
        "pr",
        "om"
      ],
      [
        "em",
        "ent"
      ],
      [
        "sm",
        "ack"
      ],
      [
        "gen",
        "ce"
      ],
      [
        "res",
        "ult"
      ],
      [
        "hand",
        "s"
      ],
      [
        "chin",
        "ese"
      ],
      [
        "sof",
        "t"
      ],
      [
        "4",
        "0"
      ],
      [
        "s",
        "ed"
      ],
      [
        "t",
        "ies"
      ],
      [
        "en",
        "e"
      ],
      [
        "am",
        "ing"
      ],
      [
        "ho",
        "p"
      ],
      [
        "vagin",
        "al"
      ],
      [
        "pa",
        "per"
      ],
      [
        "bro",
        "ther"
      ],
      [
        "ww",
        "w"
      ],
      [
        "h",
        "ur"
      ],
      [
        "r",
        "at"
      ],
      [
        "t",
        "ouch"
      ],
      [
        "th",
        "y"
      ],
      [
        "sh",
        "ut"
      ],
      [
        "de",
        "p"
      ],
      [
        "ne",
        "y"
      ],
      [
        "el",
        "ess"
      ],
      [
        "sm",
        "art"
      ],
      [
        "sme",
        "ll"
      ],
      [
        "masturb",
        "ation"
      ],
      [
        "pres",
        "ent"
      ],
      [
        "n",
        "it"
      ],
      [
        "r",
        "ag"
      ],
      [
        "s",
        "ad"
      ],
      [
        "pr",
        "act"
      ],
      [
        "ger",
        "man"
      ],
      [
        "ma",
        "j"
      ],
      [
        "dou",
        "ble"
      ],
      [
        "pol",
        "ice"
      ],
      [
        "1",
        "2"
      ],
      [
        "d",
        "oo"
      ],
      [
        "f",
        "our"
      ],
      [
        "m",
        "ac"
      ],
      [
        "ver",
        "se"
      ],
      [
        "de",
        "ep"
      ],
      [
        "ak",
        "ed"
      ],
      [
        "if",
        "ied"
      ],
      [
        "ous",
        "ly"
      ],
      [
        "shit",
        "ty"
      ],
      [
        "cool",
        "est"
      ],
      [
        "res",
        "ul"
      ],
      [
        "bas",
        "ed"
      ],
      [
        "enjo",
        "y"
      ],
      [
        "c",
        "ute"
      ],
      [
        "t",
        "on"
      ],
      [
        "w",
        "et"
      ],
      [
        "w",
        "est"
      ],
      [
        "ch",
        "ange"
      ],
      [
        "sh",
        "oo"
      ],
      [
        "sh",
        "oot"
      ],
      [
        "ro",
        "y"
      ],
      [
        "car",
        "s"
      ],
      [
        "cond",
        "ition"
      ],
      [
        "33",
        "t"
      ],
      [
        "e",
        "as"
      ],
      [
        "m",
        "ach"
      ],
      [
        "n",
        "i"
      ],
      [
        "s",
        "ick"
      ],
      [
        "in",
        "c"
      ],
      [
        "ch",
        "at"
      ],
      [
        "he",
        "y"
      ],
      [
        "tr",
        "ans"
      ],
      [
        "other",
        "wise"
      ],
      [
        "ma",
        "x"
      ],
      [
        "ful",
        "ly"
      ],
      [
        "drink",
        "ing"
      ],
      [
        "bab",
        "ly"
      ],
      [
        "fing",
        "ers"
      ],
      [
        "complete",
        "ly"
      ],
      [
        "coc",
        "aine"
      ],
      [
        "e",
        "ve"
      ],
      [
        "in",
        "stead"
      ],
      [
        "is",
        "on"
      ],
      [
        "ch",
        "ill"
      ],
      [
        "de",
        "c"
      ],
      [
        "act",
        "ing"
      ],
      [
        "ne",
        "ar"
      ],
      [
        "pro",
        "bably"
      ],
      [
        "lit",
        "er"
      ],
      [
        "boo",
        "ty"
      ],
      [
        "pub",
        "ic"
      ],
      [
        "stra",
        "ight"
      ],
      [
        "perio",
        "d"
      ],
      [
        "c",
        "ook"
      ],
      [
        "m",
        "ist"
      ],
      [
        "n",
        "u"
      ],
      [
        "t",
        "ac"
      ],
      [
        "wh",
        "ip"
      ],
      [
        "us",
        "er"
      ],
      [
        "sp",
        "ot"
      ],
      [
        "sk",
        "ank"
      ],
      [
        "ye",
        "ars"
      ],
      [
        "day",
        "s"
      ],
      [
        "dev",
        "ice"
      ],
      [
        "h",
        "h"
      ],
      [
        "m",
        "am"
      ],
      [
        "t",
        "f"
      ],
      [
        "we",
        "ak"
      ],
      [
        "person",
        "al"
      ],
      [
        "iz",
        "ation"
      ],
      [
        "gre",
        "eting"
      ],
      [
        "rel",
        "ated"
      ],
      [
        "bas",
        "ically"
      ],
      [
        "f",
        "ro"
      ],
      [
        "k",
        "et"
      ],
      [
        "k",
        "iss"
      ],
      [
        "p",
        "at"
      ],
      [
        "p",
        "ir"
      ],
      [
        "r",
        "ic"
      ],
      [
        "we",
        "l"
      ],
      [
        "do",
        "ll"
      ],
      [
        "con",
        "vers"
      ],
      [
        "par",
        "k"
      ],
      [
        "wal",
        "k"
      ],
      [
        "typ",
        "ically"
      ],
      [
        "associ",
        "ated"
      ],
      [
        "secre",
        "t"
      ],
      [
        "beaut",
        "iful"
      ],
      [
        "fash",
        "ion"
      ],
      [
        "c",
        "oo"
      ],
      [
        "c",
        "am"
      ],
      [
        "j",
        "ump"
      ],
      [
        "wh",
        "y"
      ],
      [
        "ac",
        "he"
      ],
      [
        "te",
        "le"
      ],
      [
        "ten",
        "se"
      ],
      [
        "ca",
        "using"
      ],
      [
        "ub",
        "er"
      ],
      [
        "nor",
        "th"
      ],
      [
        "bey",
        "ond"
      ],
      [
        "sper",
        "m"
      ],
      [
        "5",
        "0"
      ],
      [
        "r",
        "i"
      ],
      [
        "r",
        "are"
      ],
      [
        "it",
        "ute"
      ],
      [
        "wh",
        "om"
      ],
      [
        "and",
        "y"
      ],
      [
        "le",
        "ct"
      ],
      [
        "sh",
        "iz"
      ],
      [
        "ad",
        "v"
      ],
      [
        "ive",
        "ly"
      ],
      [
        "pos",
        "ed"
      ],
      [
        "tak",
        "en"
      ],
      [
        "sound",
        "s"
      ],
      [
        "rect",
        "um"
      ],
      [
        "n",
        "atur"
      ],
      [
        "in",
        "cred"
      ],
      [
        "re",
        "ach"
      ],
      [
        "wi",
        "ld"
      ],
      [
        "ver",
        "n"
      ],
      [
        "cl",
        "own"
      ],
      [
        "imp",
        "ort"
      ],
      [
        "app",
        "ing"
      ],
      [
        "sn",
        "ow"
      ],
      [
        "bow",
        "l"
      ],
      [
        "describ",
        "ing"
      ],
      [
        "bom",
        "b"
      ],
      [
        "e",
        "ch"
      ],
      [
        "l",
        "azy"
      ],
      [
        "ro",
        "d"
      ],
      [
        "fe",
        "ction"
      ],
      [
        "ak",
        "es"
      ],
      [
        "gr",
        "ow"
      ],
      [
        "av",
        "ing"
      ],
      [
        "ment",
        "al"
      ],
      [
        "amer",
        "ica"
      ],
      [
        "comp",
        "an"
      ],
      [
        "happen",
        "s"
      ],
      [
        "m",
        "i"
      ],
      [
        "m",
        "p"
      ],
      [
        "p",
        "un"
      ],
      [
        "the",
        "s"
      ],
      [
        "le",
        "vel"
      ],
      [
        "ig",
        "nor"
      ],
      [
        "ab",
        "sol"
      ],
      [
        "ex",
        "plo"
      ],
      [
        "po",
        "lit"
      ],
      [
        "cl",
        "it"
      ],
      [
        "stand",
        "s"
      ],
      [
        "anim",
        "e"
      ],
      [
        "mob",
        "ile"
      ],
      [
        "fru",
        "it"
      ],
      [
        "span",
        "ish"
      ],
      [
        "b",
        "is"
      ],
      [
        "f",
        "ail"
      ],
      [
        "n",
        "ature"
      ],
      [
        "p",
        "ill"
      ],
      [
        "t",
        "u"
      ],
      [
        "t",
        "or"
      ],
      [
        "w",
        "all"
      ],
      [
        "re",
        "c"
      ],
      [
        "for",
        "d"
      ],
      [
        "ot",
        "ic"
      ],
      [
        "fe",
        "ar"
      ],
      [
        "sme",
        "lly"
      ],
      [
        "mor",
        "on"
      ],
      [
        "spec",
        "ies"
      ],
      [
        "intelli",
        "gence"
      ],
      [
        "simp",
        "ly"
      ],
      [
        "amaz",
        "ing"
      ],
      [
        "a",
        "id"
      ],
      [
        "w",
        "ag"
      ],
      [
        "z",
        "er"
      ],
      [
        "by",
        "e"
      ],
      [
        "we",
        "ars"
      ],
      [
        "man",
        "s"
      ],
      [
        "con",
        "ne"
      ],
      [
        "te",
        "h"
      ],
      [
        "ud",
        "ing"
      ],
      [
        "was",
        "h"
      ],
      [
        "sur",
        "pr"
      ],
      [
        "c",
        "ross"
      ],
      [
        "d",
        "et"
      ],
      [
        "l",
        "oose"
      ],
      [
        "m",
        "ud"
      ],
      [
        "ch",
        "ie"
      ],
      [
        "for",
        "um"
      ],
      [
        "li",
        "f"
      ],
      [
        "ex",
        "tra"
      ],
      [
        "no",
        "ise"
      ],
      [
        "go",
        "ld"
      ],
      [
        "dumb",
        "ass"
      ],
      [
        "lad",
        "y"
      ],
      [
        "subst",
        "ance"
      ],
      [
        "e",
        "asy"
      ],
      [
        "p",
        "al"
      ],
      [
        "v",
        "a"
      ],
      [
        "ll",
        "o"
      ],
      [
        "lo",
        "l"
      ],
      [
        "not",
        "e"
      ],
      [
        "ill",
        "a"
      ],
      [
        "iction",
        "ary"
      ],
      [
        "attem",
        "pt"
      ],
      [
        "mex",
        "ican"
      ],
      [
        "c",
        "us"
      ],
      [
        "f",
        "ist"
      ],
      [
        "w",
        "ing"
      ],
      [
        "im",
        "e"
      ],
      [
        "ro",
        "ad"
      ],
      [
        "bitch",
        "es"
      ],
      [
        "refer",
        "red"
      ],
      [
        "frequ",
        "ently"
      ],
      [
        "b",
        "en"
      ],
      [
        "b",
        "ath"
      ],
      [
        "g",
        "ust"
      ],
      [
        "l",
        "ater"
      ],
      [
        "m",
        "as"
      ],
      [
        "r",
        "am"
      ],
      [
        "s",
        "que"
      ],
      [
        "he",
        "art"
      ],
      [
        "de",
        "fe"
      ],
      [
        "mo",
        "der"
      ],
      [
        "res",
        "pon"
      ],
      [
        "att",
        "ack"
      ],
      [
        "leg",
        "al"
      ],
      [
        "read",
        "y"
      ],
      [
        "main",
        "ly"
      ],
      [
        "'",
        ")"
      ],
      [
        "b",
        "ac"
      ],
      [
        "f",
        "ig"
      ],
      [
        "g",
        "um"
      ],
      [
        "at",
        "ic"
      ],
      [
        "un",
        "d"
      ],
      [
        "ver",
        "t"
      ],
      [
        "pro",
        "ble"
      ],
      [
        "fl",
        "at"
      ],
      [
        "ank",
        "s"
      ],
      [
        "play",
        "s"
      ],
      [
        "ye",
        "ah"
      ],
      [
        "under",
        "stand"
      ],
      [
        "mem",
        "bers"
      ],
      [
        "d",
        "at"
      ],
      [
        "l",
        "33t"
      ],
      [
        "p",
        "sy"
      ],
      [
        "s",
        "an"
      ],
      [
        "st",
        "ates"
      ],
      [
        "tr",
        "i"
      ],
      [
        "fe",
        "ces"
      ],
      [
        "we",
        "ight"
      ],
      [
        "dr",
        "y"
      ],
      [
        "iv",
        "al"
      ],
      [
        "cl",
        "aim"
      ],
      [
        "des",
        "ign"
      ],
      [
        "ear",
        "ly"
      ],
      [
        "incl",
        "ude"
      ],
      [
        "sin",
        "ce"
      ],
      [
        "neg",
        "ative"
      ],
      [
        "?",
        "'"
      ],
      [
        "f",
        "avor"
      ],
      [
        "al",
        "though"
      ],
      [
        "ve",
        "lo"
      ],
      [
        "cre",
        "am"
      ],
      [
        "how",
        "ever"
      ],
      [
        "origin",
        "al"
      ],
      [
        "pur",
        "pose"
      ],
      [
        "dil",
        "do"
      ],
      [
        "reli",
        "g"
      ],
      [
        "d",
        "ip"
      ],
      [
        "m",
        "orn"
      ],
      [
        "s",
        "li"
      ],
      [
        "t",
        "ie"
      ],
      [
        "us",
        "ion"
      ],
      [
        "el",
        "ite"
      ],
      [
        "don",
        "key"
      ],
      [
        "clo",
        "thing"
      ],
      [
        "cons",
        "um"
      ],
      [
        "cond",
        "om"
      ],
      [
        "vis",
        "ion"
      ],
      [
        "chr",
        "ist"
      ],
      [
        "won",
        "der"
      ],
      [
        "dad",
        "dy"
      ],
      [
        "ultim",
        "ate"
      ],
      [
        "veh",
        "icle"
      ],
      [
        "b",
        "one"
      ],
      [
        "g",
        "ro"
      ],
      [
        "h",
        "i"
      ],
      [
        "j",
        "es"
      ],
      [
        "o",
        "per"
      ],
      [
        "w",
        "ack"
      ],
      [
        "in",
        "form"
      ],
      [
        "le",
        "et"
      ],
      [
        "some",
        "ones"
      ],
      [
        "co",
        "ld"
      ],
      [
        "we",
        "ap"
      ],
      [
        "pro",
        "ceed"
      ],
      [
        "ment",
        "s"
      ],
      [
        "pre",
        "fer"
      ],
      [
        "boo",
        "bs"
      ],
      [
        "cont",
        "in"
      ],
      [
        "sme",
        "lls"
      ],
      [
        "though",
        "t"
      ],
      [
        "dom",
        "in"
      ],
      [
        "jer",
        "k"
      ],
      [
        "brit",
        "ish"
      ],
      [
        "1",
        "1"
      ],
      [
        "d",
        "ies"
      ],
      [
        "r",
        "ide"
      ],
      [
        "th",
        "ug"
      ],
      [
        "li",
        "e"
      ],
      [
        "im",
        "m"
      ],
      [
        "go",
        "at"
      ],
      [
        "dis",
        "gust"
      ],
      [
        "high",
        "ly"
      ],
      [
        "cons",
        "ist"
      ],
      [
        "heav",
        "y"
      ],
      [
        "fill",
        "ed"
      ],
      [
        "c",
        "ake"
      ],
      [
        "d",
        "uck"
      ],
      [
        "j",
        "ig"
      ],
      [
        "m",
        "ight"
      ],
      [
        "r",
        "ace"
      ],
      [
        "s",
        "or"
      ],
      [
        "ic",
        "es"
      ],
      [
        "fe",
        "w"
      ],
      [
        "str",
        "ange"
      ],
      [
        "was",
        "te"
      ],
      [
        "suck",
        "ing"
      ],
      [
        "att",
        "ention"
      ],
      [
        "cal",
        "i"
      ],
      [
        "skill",
        "s"
      ],
      [
        "laugh",
        "ing"
      ],
      [
        "sever",
        "al"
      ],
      [
        "9",
        "0"
      ],
      [
        "c",
        "un"
      ],
      [
        "e",
        "ase"
      ],
      [
        "h",
        "ist"
      ],
      [
        "p",
        "py"
      ],
      [
        "s",
        "es"
      ],
      [
        "s",
        "ac"
      ],
      [
        "s",
        "ci"
      ],
      [
        "t",
        "ic"
      ],
      [
        "th",
        "in"
      ],
      [
        "ll",
        "a"
      ],
      [
        "ap",
        "s"
      ],
      [
        "cr",
        "y"
      ],
      [
        "sp",
        "am"
      ],
      [
        "cl",
        "an"
      ],
      [
        "lot",
        "s"
      ],
      [
        "ejacul",
        "ate"
      ],
      [
        "colle",
        "ge"
      ],
      [
        "cult",
        "ure"
      ],
      [
        "l",
        "am"
      ],
      [
        "n",
        "ic"
      ],
      [
        "n",
        "ug"
      ],
      [
        "n",
        "ext"
      ],
      [
        "p",
        "ho"
      ],
      [
        "s",
        "wi"
      ],
      [
        "x",
        "y"
      ],
      [
        "es",
        "p"
      ],
      [
        "us",
        "eless"
      ],
      [
        "with",
        "in"
      ],
      [
        "ent",
        "ire"
      ],
      [
        "ap",
        "ed"
      ],
      [
        "ie",
        "ld"
      ],
      [
        "go",
        "vern"
      ],
      [
        "her",
        "o"
      ],
      [
        "ist",
        "ic"
      ],
      [
        "em",
        "p"
      ],
      [
        "pur",
        "ple"
      ],
      [
        "amoun",
        "ts"
      ],
      [
        "lad",
        "ies"
      ],
      [
        "natur",
        "al"
      ],
      [
        "b",
        "ase"
      ],
      [
        "f",
        "ut"
      ],
      [
        "m",
        "r"
      ],
      [
        "r",
        "ice"
      ],
      [
        "s",
        "us"
      ],
      [
        "on",
        "k"
      ],
      [
        "ic",
        "y"
      ],
      [
        "te",
        "eth"
      ],
      [
        "jo",
        "int"
      ],
      [
        "wom",
        "ans"
      ],
      [
        "vari",
        "ation"
      ],
      [
        "resem",
        "bles"
      ],
      [
        "pi",
        "pe"
      ],
      [
        "absol",
        "ute"
      ],
      [
        "r",
        "ul"
      ],
      [
        "r",
        "up"
      ],
      [
        "u",
        "k"
      ],
      [
        "en",
        "er"
      ],
      [
        "en",
        "ing"
      ],
      [
        "ro",
        "bot"
      ],
      [
        "jo",
        "y"
      ],
      [
        "ough",
        "t"
      ],
      [
        "play",
        "ed"
      ],
      [
        "ber",
        "ry"
      ],
      [
        "ye",
        "llow"
      ],
      [
        "wr",
        "it"
      ],
      [
        "rel",
        "ation"
      ],
      [
        "need",
        "s"
      ],
      [
        "mil",
        "k"
      ],
      [
        "phys",
        "ical"
      ],
      [
        "exam",
        "ple"
      ],
      [
        "morn",
        "ing"
      ],
      [
        "m",
        "unch"
      ],
      [
        "n",
        "00"
      ],
      [
        "p",
        "ow"
      ],
      [
        "s",
        "am"
      ],
      [
        "s",
        "ion"
      ],
      [
        "st",
        "im"
      ],
      [
        "he",
        "ard"
      ],
      [
        "ant",
        "i"
      ],
      [
        "fuck",
        "s"
      ],
      [
        "form",
        "s"
      ],
      [
        "part",
        "s"
      ],
      [
        "tain",
        "s"
      ],
      [
        "var",
        "ious"
      ],
      [
        "s",
        "ite"
      ],
      [
        "ac",
        "y"
      ],
      [
        "be",
        "l"
      ],
      [
        "do",
        "or"
      ],
      [
        "gr",
        "and"
      ],
      [
        "ph",
        "il"
      ],
      [
        "spe",
        "ll"
      ],
      [
        "tw",
        "at"
      ],
      [
        "chick",
        "s"
      ],
      [
        "arm",
        "s"
      ],
      [
        "add",
        "ict"
      ],
      [
        "bus",
        "iness"
      ],
      [
        "d",
        "ub"
      ],
      [
        "l",
        "ab"
      ],
      [
        "t",
        "ub"
      ],
      [
        "w",
        "oo"
      ],
      [
        "re",
        "pe"
      ],
      [
        "ch",
        "est"
      ],
      [
        "wi",
        "fe"
      ],
      [
        "ir",
        "ish"
      ],
      [
        "wor",
        "st"
      ],
      [
        "de",
        "li"
      ],
      [
        "sp",
        "ir"
      ],
      [
        "pro",
        "st"
      ],
      [
        "sk",
        "y"
      ],
      [
        "ci",
        "ation"
      ],
      [
        "band",
        "s"
      ],
      [
        "ital",
        "ian"
      ],
      [
        "led",
        "ge"
      ],
      [
        "nip",
        "ples"
      ],
      [
        "constant",
        "ly"
      ],
      [
        "c",
        "ast"
      ],
      [
        "f",
        "ive"
      ],
      [
        "j",
        "un"
      ],
      [
        "s",
        "light"
      ],
      [
        "t",
        "aste"
      ],
      [
        "in",
        "ed"
      ],
      [
        "be",
        "e"
      ],
      [
        "lo",
        "ver"
      ],
      [
        "ne",
        "l"
      ],
      [
        "ne",
        "cess"
      ],
      [
        "dr",
        "aw"
      ],
      [
        "sp",
        "in"
      ],
      [
        "sp",
        "read"
      ],
      [
        "ere",
        "ct"
      ],
      [
        "ide",
        "a"
      ],
      [
        "descr",
        "ip"
      ],
      [
        "maj",
        "or"
      ],
      [
        "mach",
        "ine"
      ],
      [
        "convers",
        "ation"
      ],
      [
        "e",
        "gg"
      ],
      [
        "l",
        "ower"
      ],
      [
        "r",
        "on"
      ],
      [
        "th",
        "or"
      ],
      [
        "th",
        "ick"
      ],
      [
        "on",
        "to"
      ],
      [
        "re",
        "cor"
      ],
      [
        "fe",
        "et"
      ],
      [
        "ud",
        "ge"
      ],
      [
        "short",
        "ened"
      ],
      [
        "rap",
        "per"
      ],
      [
        "sing",
        "le"
      ],
      [
        "atur",
        "es"
      ],
      [
        "3",
        "0"
      ],
      [
        "a",
        "ther"
      ],
      [
        "f",
        "i"
      ],
      [
        "g",
        "or"
      ],
      [
        "p",
        "c"
      ],
      [
        "re",
        "p"
      ],
      [
        "re",
        "ce"
      ],
      [
        "ch",
        "er"
      ],
      [
        "ag",
        "ed"
      ],
      [
        "wor",
        "n"
      ],
      [
        "up",
        "per"
      ],
      [
        "mo",
        "d"
      ],
      [
        "we",
        "ek"
      ],
      [
        "off",
        "ic"
      ],
      [
        "pre",
        "tend"
      ],
      [
        "ob",
        "sess"
      ],
      [
        "ser",
        "v"
      ],
      [
        "bu",
        "ff"
      ],
      [
        "cho",
        "col"
      ],
      [
        "hell",
        "o"
      ],
      [
        "beli",
        "eve"
      ],
      [
        "invol",
        "ving"
      ],
      [
        "foot",
        "ball"
      ],
      [
        "shir",
        "t"
      ],
      [
        "b",
        "orn"
      ],
      [
        "e",
        "u"
      ],
      [
        "f",
        "et"
      ],
      [
        "h",
        "ab"
      ],
      [
        "n",
        "oo"
      ],
      [
        "s",
        "our"
      ],
      [
        "t",
        "ar"
      ],
      [
        "to",
        "wards"
      ],
      [
        "it",
        "ude"
      ],
      [
        "re",
        "qu"
      ],
      [
        "il",
        "ing"
      ],
      [
        "ca",
        "uses"
      ],
      [
        "fun",
        "ction"
      ],
      [
        "origin",
        "ated"
      ],
      [
        "flu",
        "id"
      ],
      [
        "govern",
        "ment"
      ],
      [
        "a",
        "i"
      ],
      [
        "c",
        "li"
      ],
      [
        "c",
        "tr"
      ],
      [
        "l",
        "ord"
      ],
      [
        "m",
        "art"
      ],
      [
        "n",
        "ar"
      ],
      [
        "r",
        "om"
      ],
      [
        "w",
        "ich"
      ],
      [
        "an",
        "ces"
      ],
      [
        "en",
        "cy"
      ],
      [
        "us",
        "ty"
      ],
      [
        "st",
        "or"
      ]
    ]
  }
}